{
  "version": "1.0",
  "truncation": null,
  "padding": null,
  "added_tokens": [
    {
      "id": 0,
      "content": "<unk>",
      "single_word": false,
      "lstrip": false,
      "rstrip": false,
      "normalized": false,
      "special": true
    },
    {
      "id": 1,
      "content": "<s>",
      "single_word": false,
      "lstrip": false,
      "rstrip": false,
      "normalized": false,
      "special": true
    },
    {
      "id": 2,
      "content": "</s>",
      "single_word": false,
      "lstrip": false,
      "rstrip": false,
      "normalized": false,
      "special": true
    }
  ],
  "normalizer": {
    "type": "Sequence",
    "normalizers": [
      {
        "type": "Replace",
        "pattern": {
          "String": " "
        },
        "content": "▁"
      }
    ]
  },
  "pre_tokenizer": null,
  "post_processor": {
    "type": "TemplateProcessing",
    "single": [
      {
        "SpecialToken": {
          "id": "<s>",
          "type_id": 0
        }
      },
      {
        "Sequence": {
          "id": "A",
          "type_id": 0
        }
      }
    ],
    "pair": [
      {
        "SpecialToken": {
          "id": "<s>",
          "type_id": 0
        }
      },
      {
        "Sequence": {
          "id": "A",
          "type_id": 0
        }
      },
      {
        "SpecialToken": {
          "id": "<s>",
          "type_id": 1
        }
      },
      {
        "Sequence": {
          "id": "B",
          "type_id": 1
        }
      }
    ],
    "special_tokens": {
      "<s>": {
        "id": "<s>",
        "ids": [
          1
        ],
        "tokens": [
          "<s>"
        ]
      }
    }
  },
  "decoder": {
    "type": "Sequence",
    "decoders": [
      {
        "type": "Replace",
        "pattern": {
          "String": "▁"
        },
        "content": " "
      },
      {
        "type": "ByteFallback"
      },
      {
        "type": "Fuse"
      }
    ]
  },
  "model": {
    "type": "BPE",
    "dropout": null,
    "unk_token": "<unk>",
    "continuing_subword_prefix": null,
    "end_of_word_suffix": null,
    "fuse_unk": true,
    "byte_fallback": true,
    "ignore_merges": false,
    "vocab": {
      "<unk>": 0,
      "<s>": 1,
      "</s>": 2,
      "▁t": 3,
      "▁a": 4,
      "in": 5,
      "he": 6,
      "re": 7,
      "on": 8,
      "er": 9,
      "▁the": 10,
      "▁s": 11,
      "▁w": 12,
      "or": 13,
      "ou": 14,
      "at": 15,
      "nd": 16,
      "▁c": 17,
      "it": 18,
      "es": 19,
      "▁f": 20,
      "is": 21,
      "ing": 22,
      "en": 23,
      "▁p": 24,
      "▁b": 25,
      "▁o": 26,
      "an": 27,
      "al": 28,
      "ed": 29,
      "▁to": 30,
      "▁and": 31,
      "▁m": 32,
      "ar": 33,
      "▁in": 34,
      "▁of": 35,
      "▁d": 36,
      "le": 37,
      "ic": 38,
      "om": 39,
      "as": 40,
      "ion": 41,
      "▁h": 42,
      "il": 43,
      "▁th": 44,
      "▁y": 45,
      "▁T": 46,
      "▁l": 47,
      "ent": 48,
      "ro": 49,
      "ve": 50,
      "▁you": 51,
      "st": 52,
      "▁e": 53,
      "▁re": 54,
      "▁I": 55,
      "▁n": 56,
      "ct": 57,
      "▁g": 58,
      "et": 59,
      "▁S": 60,
      "▁is": 61,
      "▁for": 62,
      "ly": 63,
      "▁A": 64,
      "▁C": 65,
      "▁on": 66,
      "▁be": 67,
      "id": 68,
      "ot": 69,
      "ow": 70,
      "ay": 71,
      "ol": 72,
      "us": 73,
      "ce": 74,
      "ra": 75,
      "ig": 76,
      "ith": 77,
      "ch": 78,
      "im": 79,
      "el": 80,
      "ver": 81,
      "ation": 82,
      "▁with": 83,
      "▁st": 84,
      "ut": 85,
      "ur": 86,
      "▁M": 87,
      "am": 88,
      "ad": 89,
      "ir": 90,
      "▁W": 91,
      "▁that": 92,
      "▁P": 93,
      "▁The": 94,
      "▁B": 95,
      "ill": 96,
      "▁it": 97,
      "▁pro": 98,
      "▁al": 99,
      "ers": 100,
      "ul": 101,
      "▁are": 102,
      "▁an": 103,
      "▁he": 104,
      "un": 105,
      "▁as": 106,
      "ge": 107,
      "if": 108,
      "se": 109,
      "ke": 110,
      "our": 111,
      "▁H": 112,
      "▁D": 113,
      "out": 114,
      "▁wh": 115,
      "oo": 116,
      "▁F": 117,
      "▁ha": 118,
      "ter": 119,
      "▁we": 120,
      "▁your": 121,
      "ess": 122,
      "▁com": 123,
      "▁con": 124,
      "▁or": 125,
      "pp": 126,
      "est": 127,
      "ate": 128,
      "ab": 129,
      "▁at": 130,
      "ment": 131,
      "ck": 132,
      "▁R": 133,
      "her": 134,
      "▁fr": 135,
      "ore": 136,
      "▁ne": 137,
      "▁L": 138,
      "▁ex": 139,
      "igh": 140,
      "qu": 141,
      "ure": 142,
      "ort": 143,
      "OR": 144,
      "ST": 145,
      "▁se": 146,
      "SE": 147,
      "ist": 148,
      "ive": 149,
      "pe": 150,
      "ity": 151,
      "▁v": 152,
      "▁G": 153,
      "ORY": 154,
      "SEP": 155,
      "STORY": 156,
      "▁E": 157,
      "ant": 158,
      "▁de": 159,
      "ld": 160,
      "▁can": 161,
      "▁N": 162,
      "art": 163,
      "ust": 164,
      "ies": 165,
      "▁O": 166,
      "um": 167,
      "▁have": 168,
      "▁from": 169,
      "op": 170,
      "▁will": 171,
      "▁us": 172,
      "▁r": 173,
      "em": 174,
      "▁this": 175,
      "ain": 176,
      "▁sh": 177,
      "▁ch": 178,
      "iv": 179,
      "▁by": 180,
      "nt": 181,
      ".<": 182,
      "and": 183,
      "all": 184,
      "os": 185,
      "▁(": 186,
      "▁was": 187,
      "up": 188,
      "ome": 189,
      "th": 190,
      "ight": 191,
      "ie": 192,
      "ard": 193,
      "ud": 194,
      "ial": 195,
      "▁le": 196,
      "res": 197,
      "▁su": 198,
      "ide": 199,
      "▁not": 200,
      "ost": 201,
      "▁wor": 202,
      "▁pl": 203,
      "▁all": 204,
      "ip": 205,
      "▁Th": 206,
      "te": 207,
      "rou": 208,
      "od": 209,
      "▁ab": 210,
      "oc": 211,
      "ine": 212,
      "age": 213,
      "ice": 214,
      "ag": 215,
      "▁comp": 216,
      "are": 217,
      "ast": 218,
      "gh": 219,
      "per": 220,
      "ak": 221,
      "ear": 222,
      "▁j": 223,
      "▁has": 224,
      "▁our": 225,
      "fe": 226,
      "ell": 227,
      "▁J": 228,
      "ould": 229,
      "▁ad": 230,
      "▁k": 231,
      "▁do": 232,
      "able": 233,
      "ook": 234,
      "ction": 235,
      "ib": 236,
      "ake": 237,
      "▁In": 238,
      "▁en": 239,
      "ac": 240,
      "lo": 241,
      "ind": 242,
      "▁U": 243,
      "ack": 244,
      "ire": 245,
      "ite": 246,
      "ally": 247,
      "▁whe": 248,
      "ry": 249,
      "▁up": 250,
      "▁out": 251,
      "▁Y": 252,
      "one": 253,
      "▁so": 254,
      "ated": 255,
      "very": 256,
      "ther": 257,
      "du": 258,
      "iz": 259,
      "▁me": 260,
      "ich": 261,
      "ail": 262,
      "cc": 263,
      "▁more": 264,
      "ood": 265,
      "▁their": 266,
      "▁but": 267,
      "ime": 268,
      "for": 269,
      "ap": 270,
      "so": 271,
      "ong": 272,
      "▁We": 273,
      "▁te": 274,
      "▁im": 275,
      "▁work": 276,
      "ign": 277,
      "ous": 278,
      "▁cl": 279,
      "ance": 280,
      "▁cont": 281,
      "▁one": 282,
      "ll": 283,
      "erv": 284,
      "ans": 285,
      "ions": 286,
      "og": 287,
      "ase": 288,
      "▁K": 289,
      "▁pr": 290,
      "▁inc": 291,
      "▁man": 292,
      "reat": 293,
      "ach": 294,
      "▁qu": 295,
      "▁off": 296,
      "act": 297,
      "ace": 298,
      "▁app": 299,
      "red": 300,
      "ike": 301,
      "ia": 302,
      "▁they": 303,
      "▁my": 304,
      "▁fe": 305,
      "▁un": 306,
      "▁res": 307,
      "▁about": 308,
      "ep": 309,
      "▁It": 310,
      "ick": 311,
      "▁V": 312,
      "ult": 313,
      "▁This": 314,
      "▁St": 315,
      "ree": 316,
      "..": 317,
      "ations": 318,
      "ass": 319,
      "▁also": 320,
      "▁per": 321,
      "ark": 322,
      "▁sp": 323,
      "▁which": 324,
      "ue": 325,
      "und": 326,
      "form": 327,
      "ber": 328,
      "▁tr": 329,
      "▁new": 330,
      "ne": 331,
      "vel": 332,
      "ile": 333,
      "▁year": 334,
      "▁time": 335,
      "pt": 336,
      "ents": 337,
      "▁sa": 338,
      "▁get": 339,
      "ff": 340,
      "▁who": 341,
      "ount": 342,
      "▁go": 343,
      "▁int": 344,
      "ub": 345,
      "ame": 346,
      "ary": 347,
      "▁any": 348,
      "ove": 349,
      "▁Ch": 350,
      "ays": 351,
      "▁other": 352,
      "▁part": 353,
      "pl": 354,
      "ical": 355,
      "▁tra": 356,
      "ence": 357,
      "own": 358,
      "▁ev": 359,
      "ition": 360,
      "▁need": 361,
      "ors": 362,
      "▁dis": 363,
      "ings": 364,
      "▁like": 365,
      "ond": 366,
      "▁ro": 367,
      "▁some": 368,
      "av": 369,
      "▁\"": 370,
      "ild": 371,
      "▁ar": 372,
      "▁over": 373,
      "ress": 374,
      "▁spe": 375,
      "▁sc": 376,
      "▁rec": 377,
      "▁them": 378,
      "▁des": 379,
      "▁“": 380,
      "▁been": 381,
      "port": 382,
      "▁his": 383,
      "ens": 384,
      "▁prov": 385,
      "low": 386,
      "▁pre": 387,
      "lp": 388,
      "▁kn": 389,
      "▁acc": 390,
      "int": 391,
      "▁serv": 392,
      "ish": 393,
      "▁when": 394,
      "wn": 395,
      "ru": 396,
      "ater": 397,
      "ink": 398,
      "▁pe": 399,
      "▁-": 400,
      "ound": 401,
      "▁col": 402,
      "▁help": 403,
      "▁if": 404,
      "rough": 405,
      "ren": 406,
      "▁You": 407,
      "lud": 408,
      "▁ag": 409,
      "▁comm": 410,
      "ord": 411,
      "▁there": 412,
      "vers": 413,
      "▁am": 414,
      "▁what": 415,
      "▁than": 416,
      "▁its": 417,
      "ov": 418,
      "▁just": 419,
      "▁He": 420,
      "ough": 421,
      "▁how": 422,
      "ning": 423,
      "▁make": 424,
      "▁add": 425,
      "ices": 426,
      "cial": 427,
      "▁produ": 428,
      "ool": 429,
      "irst": 430,
      "ram": 431,
      "ang": 432,
      "▁into": 433,
      "▁look": 434,
      "ory": 435,
      "▁would": 436,
      "▁includ": 437,
      "old": 438,
      "▁If": 439,
      "tern": 440,
      "▁bu": 441,
      "ft": 442,
      "▁Wh": 443,
      "cts": 444,
      "▁af": 445,
      "ful": 446,
      "▁use": 447,
      "ual": 448,
      "mer": 449,
      "ces": 450,
      "rent": 451,
      "lic": 452,
      "ments": 453,
      "itt": 454,
      "▁her": 455,
      "ople": 456,
      "ian": 457,
      "▁through": 458,
      "▁most": 459,
      "▁bec": 460,
      "ob": 461,
      "use": 462,
      "day": 463,
      "▁ind": 464,
      "▁exper": 465,
      "▁tw": 466,
      "hed": 467,
      "▁were": 468,
      "les": 469,
      "ates": 470,
      "▁well": 471,
      "ons": 472,
      "ose": 473,
      "ious": 474,
      "▁know": 475,
      "round": 476,
      "▁ph": 477,
      "▁Re": 478,
      "je": 479,
      "iness": 480,
      "▁every": 481,
      "▁had": 482,
      "pport": 483,
      "▁first": 484,
      "ities": 485,
      "▁co": 486,
      "▁–": 487,
      "▁may": 488,
      "▁people": 489,
      "▁no": 490,
      "ri": 491,
      "▁only": 492,
      "ating": 493,
      "ks": 494,
      "ade": 495,
      "▁und": 496,
      "▁bus": 497,
      "ise": 498,
      "hen": 499,
      "▁em": 500,
      "▁want": 501,
      "▁As": 502,
      "iew": 503,
      "▁back": 504,
      "ert": 505,
      "▁bet": 506,
      "▁see": 507,
      "ple": 508,
      "xt": 509,
      "ict": 510,
      "oth": 511,
      "▁cons": 512,
      "oy": 513,
      "▁best": 514,
      "ange": 515,
      "ph": 516,
      "ures": 517,
      "we": 518,
      "ily": 519,
      "any": 520,
      "lect": 521,
      "▁design": 522,
      "▁these": 523,
      "ific": 524,
      "ced": 525,
      "▁Ne": 526,
      "ont": 527,
      "▁reg": 528,
      "▁sy": 529,
      "▁ra": 530,
      "als": 531,
      "▁great": 532,
      "urn": 533,
      "▁stud": 534,
      "row": 535,
      ").": 536,
      "▁very": 537,
      "▁loc": 538,
      "fect": 539,
      "cess": 540,
      "▁many": 541,
      "▁sm": 542,
      "ible": 543,
      "ife": 544,
      "▁ke": 545,
      "▁home": 546,
      "▁under": 547,
      "ience": 548,
      "▁For": 549,
      "▁two": 550,
      "▁dif": 551,
      "▁years": 552,
      "ting": 553,
      "▁high": 554,
      "▁find": 555,
      "iss": 556,
      "▁act": 557,
      "▁inv": 558,
      "ased": 559,
      "▁inform": 560,
      "air": 561,
      "get": 562,
      "▁good": 563,
      "ational": 564,
      "ility": 565,
      "ause": 566,
      "bs": 567,
      "▁car": 568,
      "▁rel": 569,
      "▁&": 570,
      "▁ent": 571,
      "ied": 572,
      "▁she": 573,
      "ts": 574,
      "▁av": 575,
      "▁business": 576,
      "velop": 577,
      "▁fin": 578,
      "▁inst": 579,
      "aking": 580,
      "▁ins": 581,
      "▁way": 582,
      "▁own": 583,
      "▁set": 584,
      "uring": 585,
      "▁Com": 586,
      "erson": 587,
      "ath": 588,
      "ward": 589,
      "stem": 590,
      "▁dec": 591,
      "fore": 592,
      "▁Un": 593,
      "aw": 594,
      "▁rem": 595,
      "▁ac": 596,
      "▁now": 597,
      "▁br": 598,
      "oss": 599,
      "▁start": 600,
      "ble": 601,
      "ract": 602,
      "olog": 603,
      "▁gu": 604,
      "▁Pro": 605,
      "ular": 606,
      "com": 607,
      "ustom": 608,
      "▁An": 609,
      "▁ass": 610,
      "▁where": 611,
      "uch": 612,
      "▁play": 613,
      "▁day": 614,
      "hes": 615,
      "eth": 616,
      "line": 617,
      "ics": 618,
      "▁after": 619,
      "oint": 620,
      "▁said": 621,
      "▁sec": 622,
      "▁show": 623,
      "▁even": 624,
      "▁should": 625,
      "its": 626,
      "hip": 627,
      "▁requ": 628,
      "ality": 629,
      "ty": 630,
      "▁then": 631,
      "▁che": 632,
      "▁min": 633,
      "▁imp": 634,
      "ys": 635,
      "▁fam": 636,
      "▁down": 637,
      "▁information": 638,
      "nds": 639,
      "▁De": 640,
      "▁fl": 641,
      "chn": 642,
      "arket": 643,
      "▁cre": 644,
      "▁right": 645,
      "ork": 646,
      "gan": 647,
      "ient": 648,
      "▁take": 649,
      "▁vis": 650,
      "elf": 651,
      "arch": 652,
      "ull": 653,
      "▁provid": 654,
      "lease": 655,
      "alth": 656,
      "▁And": 657,
      "ject": 658,
      "▁here": 659,
      "ative": 660,
      "ash": 661,
      "chool": 662,
      "erm": 663,
      "▁develop": 664,
      "rit": 665,
      "▁could": 666,
      "ident": 667,
      "cy": 668,
      "io": 669,
      "▁Al": 670,
      "ix": 671,
      "▁att": 672,
      "ited": 673,
      "▁don": 674,
      "▁custom": 675,
      "▁read": 676,
      "▁wee": 677,
      "▁mon": 678,
      "gram": 679,
      "▁bl": 680,
      "pect": 681,
      "▁Sh": 682,
      "amp": 683,
      "ale": 684,
      "▁mod": 685,
      "ower": 686,
      "▁long": 687,
      "ax": 688,
      "▁diffe": 689,
      "▁used": 690,
      "▁such": 691,
      "ank": 692,
      "▁Se": 693,
      "▁much": 694,
      "ner": 695,
      "me": 696,
      "▁$": 697,
      "▁call": 698,
      "▁made": 699,
      "▁inte": 700,
      "▁sur": 701,
      "▁Be": 702,
      "▁avail": 703,
      "▁system": 704,
      "▁comple": 705,
      "▁str": 706,
      "▁person": 707,
      "ener": 708,
      "▁eas": 709,
      "ize": 710,
      "▁disc": 711,
      "▁too": 712,
      "▁sim": 713,
      "▁sk": 714,
      "▁world": 715,
      "▁support": 716,
      "az": 717,
      "ven": 718,
      "▁art": 719,
      "),": 720,
      "ages": 721,
      "ouse": 722,
      "ock": 723,
      "▁free": 724,
      "▁pres": 725,
      "▁team": 726,
      "pen": 727,
      "ric": 728,
      "▁Cl": 729,
      "▁trans": 730,
      "▁cur": 731,
      "land": 732,
      "iving": 733,
      "ional": 734,
      "▁mem": 735,
      "ives": 736,
      "▁det": 737,
      "arm": 738,
      "rest": 739,
      "arn": 740,
      "▁life": 741,
      "ues": 742,
      "▁There": 743,
      "▁before": 744,
      "▁love": 745,
      "▁post": 746,
      "▁med": 747,
      "pr": 748,
      "▁prof": 749,
      "▁adv": 750,
      "olut": 751,
      "▁available": 752,
      "▁New": 753,
      "▁each": 754,
      "▁care": 755,
      "▁bo": 756,
      "atch": 757,
      "other": 758,
      "▁num": 759,
      "▁Fr": 760,
      "▁form": 761,
      "ng": 762,
      "way": 763,
      "▁because": 764,
      "ets": 765,
      "unity": 766,
      "der": 767,
      "▁Ar": 768,
      "ros": 769,
      "led": 770,
      "...": 771,
      "▁last": 772,
      "▁market": 773,
      "▁service": 774,
      "▁techn": 775,
      "ines": 776,
      "▁while": 777,
      "ave": 778,
      "▁being": 779,
      "▁around": 780,
      "▁lead": 781,
      "akes": 782,
      "▁del": 783,
      "oun": 784,
      "▁top": 785,
      "▁list": 786,
      "▁cle": 787,
      "▁ed": 788,
      "alk": 789,
      "▁does": 790,
      "▁rep": 791,
      "▁place": 792,
      "▁.": 793,
      "▁program": 794,
      "▁How": 795,
      "▁those": 796,
      "ivers": 797,
      "▁child": 798,
      "ason": 799,
      "ollow": 800,
      "▁Ad": 801,
      "ince": 802,
      "ier": 803,
      "▁On": 804,
      "ining": 805,
      "▁gra": 806,
      "▁Our": 807,
      "▁offer": 808,
      "▁fun": 809,
      "▁book": 810,
      "ug": 811,
      "▁think": 812,
      "▁process": 813,
      "▁dr": 814,
      "▁ser": 815,
      "ata": 816,
      "irect": 817,
      "iqu": 818,
      "▁different": 819,
      "▁end": 820,
      "▁company": 821,
      "de": 822,
      "els": 823,
      "▁again": 824,
      "ather": 825,
      "▁inter": 826,
      "ually": 827,
      "ior": 828,
      "▁Le": 829,
      "ins": 830,
      "iet": 831,
      "▁aut": 832,
      "rib": 833,
      "▁ret": 834,
      "roup": 835,
      "ene": 836,
      "ctions": 837,
      "▁experience": 838,
      "ways": 839,
      "▁did": 840,
      "▁services": 841,
      "▁using": 842,
      "▁lar": 843,
      "▁sub": 844,
      "▁To": 845,
      "▁pur": 846,
      "▁cour": 847,
      "read": 848,
      "▁opt": 849,
      "ving": 850,
      "cept": 851,
      "▁pub": 852,
      "▁count": 853,
      "▁var": 854,
      "ature": 855,
      "view": 856,
      "▁both": 857,
      "▁ext": 858,
      "▁All": 859,
      "▁hand": 860,
      "aut": 861,
      "▁provide": 862,
      "▁So": 863,
      "▁Pl": 864,
      "▁found": 865,
      "▁But": 866,
      "ness": 867,
      "ired": 868,
      "aint": 869,
      "ars": 870,
      "▁import": 871,
      "▁build": 872,
      "▁pol": 873,
      "▁plan": 874,
      "▁They": 875,
      "▁ide": 876,
      "▁With": 877,
      "ton": 878,
      "ized": 879,
      "imes": 880,
      "▁water": 881,
      "▁char": 882,
      "▁really": 883,
      "▁run": 884,
      "▁sign": 885,
      "▁exp": 886,
      "ants": 887,
      "au": 888,
      "iel": 889,
      "▁health": 890,
      "ology": 891,
      "▁val": 892,
      "▁follow": 893,
      "▁including": 894,
      "▁family": 895,
      "▁quality": 896,
      "ween": 897,
      "▁Te": 898,
      "▁keep": 899,
      "▁month": 900,
      "▁open": 901,
      "▁What": 902,
      "▁som": 903,
      "▁ty": 904,
      "▁Ex": 905,
      "ery": 906,
      "▁small": 907,
      "gg": 908,
      "ital": 909,
      "▁special": 910,
      "ittle": 911,
      "▁organ": 912,
      "ved": 913,
      "▁lot": 914,
      "ware": 915,
      "ross": 916,
      "▁allow": 917,
      "▁still": 918,
      "less": 919,
      "!<": 920,
      "orth": 921,
      "▁sure": 922,
      "▁fil": 923,
      "▁cent": 924,
      "bers": 925,
      "▁few": 926,
      "▁between": 927,
      "▁same": 928,
      "co": 929,
      "ern": 930,
      "▁happ": 931,
      "ah": 932,
      "▁appro": 933,
      "▁going": 934,
      "▁pat": 935,
      "▁At": 936,
      "▁Q": 937,
      "ients": 938,
      "▁school": 939,
      "▁frie": 940,
      "▁cor": 941,
      "ural": 942,
      "reen": 943,
      "▁area": 944,
      "▁feel": 945,
      "▁When": 946,
      "▁stand": 947,
      "joy": 948,
      "▁bra": 949,
      "▁real": 950,
      "▁online": 951,
      "▁poss": 952,
      "▁result": 953,
      "▁always": 954,
      "uc": 955,
      "be": 956,
      "▁him": 957,
      "▁class": 958,
      "▁ve": 959,
      "▁webs": 960,
      "▁rest": 961,
      "ien": 962,
      "▁cost": 963,
      "room": 964,
      "▁perform": 965,
      "▁during": 966,
      "▁phot": 967,
      "▁ref": 968,
      "▁full": 969,
      "ished": 970,
      "▁light": 971,
      "ling": 972,
      "▁three": 973,
      "▁rece": 974,
      "▁gener": 975,
      "▁proper": 976,
      "▁though": 977,
      "▁come": 978,
      "ms": 979,
      "▁interest": 980,
      "ute": 981,
      "▁Af": 982,
      "ield": 983,
      "ists": 984,
      "gy": 985,
      "▁cap": 986,
      "▁partic": 987,
      "iver": 988,
      "load": 989,
      "stand": 990,
      "▁access": 991,
      "▁Col": 992,
      "▁Sc": 993,
      "ik": 994,
      "▁number": 995,
      "▁profess": 996,
      "▁visit": 997,
      "ott": 998,
      "ined": 999,
      "▁data": 1000,
      "▁i": 1001,
      "▁mus": 1002,
      "▁little": 1003,
      "▁Ind": 1004,
      "man": 1005,
      "▁pay": 1006,
      "ustr": 1007,
      "▁products": 1008,
      "loy": 1009,
      "▁room": 1010,
      "▁next": 1011,
      "▁point": 1012,
      "thing": 1013,
      "▁today": 1014,
      "uss": 1015,
      "▁She": 1016,
      "ever": 1017,
      "▁pass": 1018,
      "▁give": 1019,
      "▁better": 1020,
      "ody": 1021,
      "▁current": 1022,
      "▁iss": 1023,
      "▁report": 1024,
      "dition": 1025,
      "ccess": 1026,
      "att": 1027,
      "▁able": 1028,
      "oot": 1029,
      "ours": 1030,
      "▁quest": 1031,
      "ames": 1032,
      "▁important": 1033,
      "▁week": 1034,
      "▁contin": 1035,
      "work": 1036,
      "ium": 1037,
      "▁without": 1038,
      "▁cr": 1039,
      "ves": 1040,
      "▁resp": 1041,
      "oney": 1042,
      "▁eng": 1043,
      "ically": 1044,
      "▁group": 1045,
      "▁dist": 1046,
      "ploy": 1047,
      "▁spec": 1048,
      "▁level": 1049,
      "▁looking": 1050,
      "▁must": 1051,
      "▁things": 1052,
      "▁conf": 1053,
      "▁ef": 1054,
      "meric": 1055,
      "▁Is": 1056,
      "ards": 1057,
      "▁conc": 1058,
      "▁direct": 1059,
      "▁try": 1060,
      "▁site": 1061,
      "arly": 1062,
      "▁gr": 1063,
      "▁enjoy": 1064,
      "▁state": 1065,
      "▁grow": 1066,
      "▁meet": 1067,
      "ering": 1068,
      "!!": 1069,
      "▁ob": 1070,
      "▁within": 1071,
      "self": 1072,
      "ething": 1073,
      "▁put": 1074,
      "▁working": 1075,
      "▁equ": 1076,
      "▁big": 1077,
      "▁Con": 1078,
      "▁order": 1079,
      "eng": 1080,
      "▁since": 1081,
      "▁proble": 1082,
      "▁local": 1083,
      "outh": 1084,
      "▁needs": 1085,
      "ffic": 1086,
      "▁oper": 1087,
      "lection": 1088,
      "▁website": 1089,
      "▁Ph": 1090,
      "▁view": 1091,
      "▁project": 1092,
      "ately": 1093,
      "over": 1094,
      "▁exam": 1095,
      "▁bel": 1096,
      "▁fac": 1097,
      "▁hard": 1098,
      "▁second": 1099,
      "orn": 1100,
      "▁blo": 1101,
      "▁supp": 1102,
      "▁def": 1103,
      "▁gl": 1104,
      "rist": 1105,
      "iversity": 1106,
      "▁let": 1107,
      "▁head": 1108,
      "▁Bl": 1109,
      "▁Pr": 1110,
      "▁est": 1111,
      "ipp": 1112,
      "▁addition": 1113,
      "ique": 1114,
      "▁Z": 1115,
      "▁students": 1116,
      "con": 1117,
      "▁invest": 1118,
      "▁Man": 1119,
      "ared": 1120,
      "▁sl": 1121,
      "▁days": 1122,
      "▁contact": 1123,
      "▁Can": 1124,
      "▁incre": 1125,
      "▁win": 1126,
      "▁game": 1127,
      "▁Americ": 1128,
      "▁beaut": 1129,
      "aj": 1130,
      "ential": 1131,
      "▁check": 1132,
      "▁applic": 1133,
      "▁something": 1134,
      "▁old": 1135,
      "▁ann": 1136,
      "rol": 1137,
      "ote": 1138,
      "▁event": 1139,
      "▁fact": 1140,
      "iron": 1141,
      "uck": 1142,
      "▁say": 1143,
      "▁bro": 1144,
      "▁inf": 1145,
      "▁Tr": 1146,
      "agement": 1147,
      "▁food": 1148,
      "▁easy": 1149,
      "▁soc": 1150,
      "▁rese": 1151,
      "▁intern": 1152,
      "▁air": 1153,
      "here": 1154,
      "▁power": 1155,
      "▁Res": 1156,
      "▁another": 1157,
      "▁sal": 1158,
      "br": 1159,
      "▁cert": 1160,
      "vent": 1161,
      "▁Or": 1162,
      "ision": 1163,
      "▁test": 1164,
      "▁Do": 1165,
      "▁mov": 1166,
      "▁bre": 1167,
      "▁prom": 1168,
      "ruct": 1169,
      "▁pract": 1170,
      "▁complete": 1171,
      "▁product": 1172,
      "ivid": 1173,
      "cl": 1174,
      "ains": 1175,
      "▁pop": 1176,
      "ator": 1177,
      "rence": 1178,
      "ats": 1179,
      "▁Sp": 1180,
      "▁large": 1181,
      "▁perfect": 1182,
      "▁children": 1183,
      "▁sit": 1184,
      "▁making": 1185,
      "ills": 1186,
      "▁detail": 1187,
      "ently": 1188,
      "ified": 1189,
      "por": 1190,
      "ode": 1191,
      "▁Cent": 1192,
      "▁vide": 1193,
      "▁page": 1194,
      "▁These": 1195,
      "inal": 1196,
      "▁impro": 1197,
      "▁creat": 1198,
      "cing": 1199,
      "▁job": 1200,
      "ems": 1201,
      "▁Jo": 1202,
      "sh": 1203,
      "▁less": 1204,
      "▁prote": 1205,
      "ump": 1206,
      "▁unt": 1207,
      "let": 1208,
      "▁wr": 1209,
      "yle": 1210,
      "▁buy": 1211,
      "▁expl": 1212,
      "ieve": 1213,
      "▁might": 1214,
      "▁‘": 1215,
      "▁My": 1216,
      "▁met": 1217,
      "▁pos": 1218,
      "▁public": 1219,
      "bo": 1220,
      "aterial": 1221,
      "▁success": 1222,
      "ER": 1223,
      "illion": 1224,
      "nding": 1225,
      "▁present": 1226,
      "ding": 1227,
      "▁community": 1228,
      "ised": 1229,
      "▁learn": 1230,
      "iety": 1231,
      "▁never": 1232,
      "ina": 1233,
      "▁feat": 1234,
      "ope": 1235,
      "ases": 1236,
      "▁create": 1237,
      "to": 1238,
      "iful": 1239,
      "of": 1240,
      "ogra": 1241,
      "ission": 1242,
      "gether": 1243,
      "▁together": 1244,
      "aster": 1245,
      "ush": 1246,
      "utes": 1247,
      "▁Me": 1248,
      "▁el": 1249,
      "▁house": 1250,
      "ids": 1251,
      "ury": 1252,
      "▁money": 1253,
      "ird": 1254,
      "▁activ": 1255,
      "gin": 1256,
      "ream": 1257,
      "ron": 1258,
      "▁US": 1259,
      ".\"": 1260,
      "▁That": 1261,
      "ocus": 1262,
      "▁along": 1263,
      "▁sing": 1264,
      "▁No": 1265,
      "ense": 1266,
      "▁got": 1267,
      "ories": 1268,
      "▁conne": 1269,
      "▁understand": 1270,
      "▁treat": 1271,
      "atter": 1272,
      "▁solut": 1273,
      "fort": 1274,
      "▁ask": 1275,
      "aper": 1276,
      "ley": 1277,
      "rop": 1278,
      "ten": 1279,
      "▁ens": 1280,
      "▁const": 1281,
      "ived": 1282,
      "▁below": 1283,
      "▁name": 1284,
      "▁effect": 1285,
      "iven": 1286,
      "▁course": 1287,
      "▁until": 1288,
      "▁include": 1289,
      "▁change": 1290,
      "part": 1291,
      "▁based": 1292,
      "aring": 1293,
      "ustry": 1294,
      "▁bas": 1295,
      "enef": 1296,
      "itc": 1297,
      "▁opport": 1298,
      "ney": 1299,
      "▁soft": 1300,
      "▁employ": 1301,
      "ability": 1302,
      "ration": 1303,
      "▁material": 1304,
      "▁chang": 1305,
      "oring": 1306,
      "▁ce": 1307,
      "ok": 1308,
      "orm": 1309,
      "icle": 1310,
      "ann": 1311,
      "ged": 1312,
      "ider": 1313,
      "▁possible": 1314,
      "▁offers": 1315,
      "ted": 1316,
      "lish": 1317,
      "▁install": 1318,
      "viron": 1319,
      ",”": 1320,
      "ify": 1321,
      "▁personal": 1322,
      "▁away": 1323,
      "▁hot": 1324,
      "oose": 1325,
      "▁please": 1326,
      "▁dra": 1327,
      "▁clean": 1328,
      "▁dev": 1329,
      "▁sw": 1330,
      "indow": 1331,
      "▁turn": 1332,
      "ember": 1333,
      "ered": 1334,
      "▁price": 1335,
      "app": 1336,
      "med": 1337,
      "cent": 1338,
      "▁One": 1339,
      "▁range": 1340,
      "▁Comm": 1341,
      "▁law": 1342,
      "itions": 1343,
      "oci": 1344,
      "min": 1345,
      "nded": 1346,
      "▁Des": 1347,
      "ising": 1348,
      "side": 1349,
      "▁four": 1350,
      "aff": 1351,
      "▁members": 1352,
      "ret": 1353,
      "pos": 1354,
      "▁night": 1355,
      "▁Christ": 1356,
      "▁music": 1357,
      "ording": 1358,
      "▁past": 1359,
      "▁individ": 1360,
      "omen": 1361,
      "▁benef": 1362,
      "ization": 1363,
      "itive": 1364,
      "▁Mar": 1365,
      "▁Car": 1366,
      "▁arr": 1367,
      "▁Co": 1368,
      "▁leg": 1369,
      "ands": 1370,
      "▁Tra": 1371,
      "ger": 1372,
      "▁focus": 1373,
      "▁hist": 1374,
      "▁Eng": 1375,
      "▁pack": 1376,
      "▁University": 1377,
      "▁case": 1378,
      "▁development": 1379,
      "▁App": 1380,
      "▁fav": 1381,
      "oice": 1382,
      "▁research": 1383,
      "▁dem": 1384,
      "▁expect": 1385,
      "iting": 1386,
      "▁require": 1387,
      "▁elect": 1388,
      "▁mult": 1389,
      "▁account": 1390,
      "ips": 1391,
      "▁comes": 1392,
      "▁pot": 1393,
      "▁ste": 1394,
      "▁short": 1395,
      "▁Am": 1396,
      "▁bed": 1397,
      "▁why": 1398,
      "ateg": 1399,
      "▁industry": 1400,
      "▁times": 1401,
      "▁side": 1402,
      "arent": 1403,
      "veral": 1404,
      "IN": 1405,
      "▁clo": 1406,
      "▁across": 1407,
      "ured": 1408,
      "▁lo": 1409,
      "▁En": 1410,
      "ency": 1411,
      "▁live": 1412,
      "pecial": 1413,
      "▁Che": 1414,
      "▁beautiful": 1415,
      "urs": 1416,
      "▁tem": 1417,
      "▁pict": 1418,
      "▁quick": 1419,
      "▁tre": 1420,
      "▁beh": 1421,
      "ention": 1422,
      "▁often": 1423,
      "▁customers": 1424,
      "▁store": 1425,
      "▁educ": 1426,
      "uper": 1427,
      "▁line": 1428,
      "▁makes": 1429,
      "▁Please": 1430,
      "▁Cont": 1431,
      "ift": 1432,
      "err": 1433,
      "olid": 1434,
      "▁season": 1435,
      "▁space": 1436,
      "ane": 1437,
      "▁tool": 1438,
      "ination": 1439,
      "▁After": 1440,
      "ism": 1441,
      "▁la": 1442,
      "▁review": 1443,
      "▁purch": 1444,
      "▁low": 1445,
      "▁'": 1446,
      "▁individual": 1447,
      "rip": 1448,
      "vironment": 1449,
      "▁Br": 1450,
      "▁having": 1451,
      "anies": 1452,
      "▁become": 1453,
      "▁link": 1454,
      "▁against": 1455,
      "▁vers": 1456,
      "▁specific": 1457,
      "▁features": 1458,
      "▁kind": 1459,
      "▁Ro": 1460,
      "▁cou": 1461,
      "▁share": 1462,
      "ape": 1463,
      "▁net": 1464,
      "▁move": 1465,
      "uture": 1466,
      "▁compet": 1467,
      "▁key": 1468,
      "▁control": 1469,
      "af": 1470,
      "▁Your": 1471,
      "ably": 1472,
      "ners": 1473,
      "▁done": 1474,
      "ready": 1475,
      "▁Gu": 1476,
      "▁Fe": 1477,
      "▁cover": 1478,
      "▁social": 1479,
      "▁professional": 1480,
      "▁hum": 1481,
      "vious": 1482,
      "▁bring": 1483,
      "uf": 1484,
      "▁term": 1485,
      "hor": 1486,
      "by": 1487,
      "vern": 1488,
      "the": 1489,
      "▁several": 1490,
      "▁video": 1491,
      "wards": 1492,
      "▁comb": 1493,
      "▁May": 1494,
      "▁Dr": 1495,
      "uro": 1496,
      "ots": 1497,
      "▁fund": 1498,
      "ograph": 1499,
      "The": 1500,
      "jects": 1501,
      "▁—": 1502,
      "▁commun": 1503,
      "oor": 1504,
      "ajor": 1505,
      "▁flo": 1506,
      "▁city": 1507,
      "fer": 1508,
      "▁ele": 1509,
      "▁country": 1510,
      "▁Comp": 1511,
      "▁body": 1512,
      "▁email": 1513,
      "▁hours": 1514,
      "▁Ste": 1515,
      "▁hig": 1516,
      "▁camp": 1517,
      "anks": 1518,
      "▁minutes": 1519,
      "osp": 1520,
      "ford": 1521,
      "▁left": 1522,
      "▁Fl": 1523,
      "cell": 1524,
      "ilt": 1525,
      "▁typ": 1526,
      "▁means": 1527,
      "▁Inst": 1528,
      "▁ever": 1529,
      "▁technology": 1530,
      "▁priv": 1531,
      "▁provides": 1532,
      "▁di": 1533,
      "opp": 1534,
      "▁deal": 1535,
      "enn": 1536,
      "ides": 1537,
      "urity": 1538,
      "▁es": 1539,
      "▁main": 1540,
      "▁Serv": 1541,
      "▁writ": 1542,
      "▁friends": 1543,
      "ilities": 1544,
      "ai": 1545,
      "rap": 1546,
      "▁already": 1547,
      "▁getting": 1548,
      "▁pie": 1549,
      "▁record": 1550,
      "▁non": 1551,
      "orts": 1552,
      "▁orig": 1553,
      "ee": 1554,
      "▁others": 1555,
      "book": 1556,
      "▁Intern": 1557,
      "▁companies": 1558,
      "urance": 1559,
      "▁occ": 1560,
      "alf": 1561,
      "aces": 1562,
      "▁word": 1563,
      "▁thing": 1564,
      "▁unique": 1565,
      "▁jo": 1566,
      "▁X": 1567,
      "▁mar": 1568,
      "▁Sy": 1569,
      "▁hold": 1570,
      "ones": 1571,
      "▁cut": 1572,
      "▁maint": 1573,
      "▁prep": 1574,
      "ec": 1575,
      ".,": 1576,
      "▁lim": 1577,
      "▁future": 1578,
      "ON": 1579,
      "▁upd": 1580,
      "▁govern": 1581,
      "▁questions": 1582,
      "▁redu": 1583,
      "ister": 1584,
      "augh": 1585,
      "▁sum": 1586,
      "▁step": 1587,
      "▁search": 1588,
      "ufact": 1589,
      "▁,": 1590,
      "▁Med": 1591,
      "▁print": 1592,
      "atural": 1593,
      "▁building": 1594,
      "ances": 1595,
      "ights": 1596,
      "cer": 1597,
      "unch": 1598,
      "▁enough": 1599,
      "▁recom": 1600,
      "▁offic": 1601,
      "▁However": 1602,
      "resh": 1603,
      "ained": 1604,
      "ctor": 1605,
      "ief": 1606,
      "▁major": 1607,
      "conom": 1608,
      "▁fore": 1609,
      "▁environment": 1610,
      "▁training": 1611,
      "▁bit": 1612,
      "ored": 1613,
      "▁designed": 1614,
      "▁recomme": 1615,
      "AT": 1616,
      "▁mind": 1617,
      "bal": 1618,
      "▁Ass": 1619,
      "inc": 1620,
      "▁works": 1621,
      "ries": 1622,
      "▁story": 1623,
      "une": 1624,
      "▁started": 1625,
      "▁field": 1626,
      "AN": 1627,
      "urther": 1628,
      "▁rele": 1629,
      "▁invol": 1630,
      "ribut": 1631,
      "▁property": 1632,
      "▁exc": 1633,
      "▁close": 1634,
      "▁mil": 1635,
      "▁cra": 1636,
      "▁travel": 1637,
      "▁anal": 1638,
      "▁chall": 1639,
      "lished": 1640,
      "▁wa": 1641,
      "cle": 1642,
      "▁return": 1643,
      "son": 1644,
      "gr": 1645,
      "▁value": 1646,
      "ex": 1647,
      "▁size": 1648,
      "▁walk": 1649,
      "▁Wor": 1650,
      "▁Rep": 1651,
      "ference": 1652,
      "itchen": 1653,
      "▁staff": 1654,
      "ource": 1655,
      "uff": 1656,
      "AR": 1657,
      "aining": 1658,
      "▁web": 1659,
      "nder": 1660,
      "mber": 1661,
      "▁simple": 1662,
      "▁results": 1663,
      "▁won": 1664,
      "▁management": 1665,
      "▁ensure": 1666,
      "ches": 1667,
      "▁/": 1668,
      "▁news": 1669,
      "ancial": 1670,
      "▁vol": 1671,
      "▁et": 1672,
      "▁stay": 1673,
      "▁ener": 1674,
      "▁strong": 1675,
      "aim": 1676,
      "ources": 1677,
      "▁address": 1678,
      "▁areas": 1679,
      "▁click": 1680,
      "ript": 1681,
      "▁once": 1682,
      "atic": 1683,
      "▁clients": 1684,
      "▁discuss": 1685,
      "sel": 1686,
      "▁improve": 1687,
      "irm": 1688,
      "▁office": 1689,
      "arning": 1690,
      "come": 1691,
      "▁experien": 1692,
      "▁port": 1693,
      "▁card": 1694,
      "▁young": 1695,
      "▁wall": 1696,
      "▁talk": 1697,
      "▁called": 1698,
      "rodu": 1699,
      "ledge": 1700,
      "▁sell": 1701,
      "▁heart": 1702,
      "place": 1703,
      "ither": 1704,
      "▁Im": 1705,
      "▁men": 1706,
      "▁download": 1707,
      "ges": 1708,
      "sw": 1709,
      "ival": 1710,
      "omes": 1711,
      "obile": 1712,
      "yl": 1713,
      "most": 1714,
      "▁million": 1715,
      "hn": 1716,
      "uly": 1717,
      "pend": 1718,
      "resent": 1719,
      "▁begin": 1720,
      "▁months": 1721,
      "irl": 1722,
      "▁certain": 1723,
      "▁doing": 1724,
      "▁study": 1725,
      "▁customer": 1726,
      "astic": 1727,
      "▁far": 1728,
      "ental": 1729,
      "hers": 1730,
      "reet": 1731,
      "▁tell": 1732,
      "▁everything": 1733,
      "▁City": 1734,
      "▁hope": 1735,
      "▁School": 1736,
      "ethod": 1737,
      "▁bar": 1738,
      "osed": 1739,
      "▁ident": 1740,
      "▁break": 1741,
      "ww": 1742,
      "li": 1743,
      "idd": 1744,
      "▁various": 1745,
      "▁wond": 1746,
      "▁Count": 1747,
      "▁enc": 1748,
      "▁assist": 1749,
      "ony": 1750,
      "▁mean": 1751,
      "▁known": 1752,
      "▁track": 1753,
      "isk": 1754,
      "▁living": 1755,
      "nov": 1756,
      "illed": 1757,
      "▁choose": 1758,
      "▁wide": 1759,
      "▁performance": 1760,
      "▁problem": 1761,
      "▁God": 1762,
      "▁ey": 1763,
      "ply": 1764,
      "▁mom": 1765,
      "abor": 1766,
      "▁tot": 1767,
      "▁type": 1768,
      "ocu": 1769,
      "▁sound": 1770,
      "▁single": 1771,
      "▁color": 1772,
      "▁respons": 1773,
      "▁friend": 1774,
      "ruction": 1775,
      "▁above": 1776,
      "▁z": 1777,
      "▁mot": 1778,
      "arr": 1779,
      "▁style": 1780,
      "ests": 1781,
      "▁following": 1782,
      "▁select": 1783,
      "▁table": 1784,
      "▁issues": 1785,
      "▁comfort": 1786,
      "▁front": 1787,
      "▁near": 1788,
      "▁yet": 1789,
      "▁host": 1790,
      "▁series": 1791,
      "▁particular": 1792,
      "▁Here": 1793,
      ",\"": 1794,
      "▁Now": 1795,
      "▁sn": 1796,
      "▁tour": 1797,
      "ral": 1798,
      "▁dig": 1799,
      "▁includes": 1800,
      "▁Not": 1801,
      "gle": 1802,
      "▁pick": 1803,
      "▁Pre": 1804,
      "▁charact": 1805,
      "▁located": 1806,
      "ensive": 1807,
      "▁Min": 1808,
      "▁early": 1809,
      "▁particip": 1810,
      "▁least": 1811,
      "oll": 1812,
      "▁press": 1813,
      "ume": 1814,
      "▁lat": 1815,
      "lex": 1816,
      "▁South": 1817,
      "hest": 1818,
      "▁Euro": 1819,
      "▁options": 1820,
      "▁cook": 1821,
      "▁content": 1822,
      "▁oil": 1823,
      "fully": 1824,
      "aps": 1825,
      "aken": 1826,
      "▁Bo": 1827,
      "lege": 1828,
      "▁manag": 1829,
      "▁media": 1830,
      "▁engine": 1831,
      "▁veh": 1832,
      "ians": 1833,
      "▁doesn": 1834,
      "▁events": 1835,
      "asing": 1836,
      "▁American": 1837,
      "▁details": 1838,
      "▁mess": 1839,
      "▁Park": 1840,
      "▁manufact": 1841,
      "play": 1842,
      "▁tax": 1843,
      "▁required": 1844,
      "irt": 1845,
      "roll": 1846,
      "▁amount": 1847,
      "ipment": 1848,
      "▁appear": 1849,
      "▁mach": 1850,
      "▁flow": 1851,
      "▁Gra": 1852,
      "▁par": 1853,
      "▁tas": 1854,
      "▁white": 1855,
      "aur": 1856,
      "cted": 1857,
      "▁Ke": 1858,
      "▁energy": 1859,
      "▁ideas": 1860,
      "ched": 1861,
      "nam": 1862,
      "▁Just": 1863,
      "azing": 1864,
      "icy": 1865,
      "▁Qu": 1866,
      "▁favor": 1867,
      "▁aud": 1868,
      "ille": 1869,
      "oon": 1870,
      "iod": 1871,
      "▁North": 1872,
      "gest": 1873,
      "▁women": 1874,
      "▁cred": 1875,
      "vert": 1876,
      "▁Inc": 1877,
      "▁comput": 1878,
      "▁ess": 1879,
      "▁phone": 1880,
      "▁popular": 1881,
      "ibility": 1882,
      "ables": 1883,
      "ux": 1884,
      "▁pan": 1885,
      "▁pain": 1886,
      "ites": 1887,
      "▁due": 1888,
      "ops": 1889,
      "▁extra": 1890,
      "pecially": 1891,
      "▁taking": 1892,
      "▁ach": 1893,
      "▁glo": 1894,
      "▁given": 1895,
      "▁ready": 1896,
      "ogn": 1897,
      "▁Sm": 1898,
      "▁actually": 1899,
      "lebr": 1900,
      "ulation": 1901,
      "tt": 1902,
      "▁Dis": 1903,
      "▁added": 1904,
      "rew": 1905,
      "▁natural": 1906,
      "RE": 1907,
      "▁text": 1908,
      "▁method": 1909,
      "▁five": 1910,
      "atur": 1911,
      "▁took": 1912,
      "▁feature": 1913,
      "▁cult": 1914,
      "▁software": 1915,
      "▁effective": 1916,
      "itted": 1917,
      "▁mag": 1918,
      "▁Pe": 1919,
      "▁throughout": 1920,
      "▁says": 1921,
      "▁sol": 1922,
      "eral": 1923,
      "▁insp": 1924,
      "▁While": 1925,
      "▁receive": 1926,
      "rict": 1927,
      "▁United": 1928,
      "▁John": 1929,
      "▁came": 1930,
      "▁fit": 1931,
      "▁someone": 1932,
      "▁black": 1933,
      "▁reason": 1934,
      "imate": 1935,
      "ety": 1936,
      "▁whole": 1937,
      "▁log": 1938,
      "▁didn": 1939,
      "mb": 1940,
      "▁High": 1941,
      "▁Cal": 1942,
      "▁wood": 1943,
      "crib": 1944,
      "▁further": 1945,
      "▁ant": 1946,
      "▁Su": 1947,
      "not": 1948,
      "▁percent": 1949,
      "▁Don": 1950,
      "ball": 1951,
      "▁box": 1952,
      "ler": 1953,
      "▁latest": 1954,
      "▁currently": 1955,
      "▁docu": 1956,
      "▁#": 1957,
      "ibr": 1958,
      "▁Per": 1959,
      "▁age": 1960,
      "▁relations": 1961,
      "▁among": 1962,
      "ung": 1963,
      "▁games": 1964,
      "▁knowledge": 1965,
      "ises": 1966,
      "▁government": 1967,
      "▁thought": 1968,
      "▁Europe": 1969,
      "urch": 1970,
      "▁example": 1971,
      "▁eff": 1972,
      "▁systems": 1973,
      "▁park": 1974,
      "▁Bu": 1975,
      "ators": 1976,
      "▁autom": 1977,
      "▁From": 1978,
      "▁Tw": 1979,
      "▁miss": 1980,
      "ead": 1981,
      "▁face": 1982,
      "▁everyone": 1983,
      "pro": 1984,
      "▁provided": 1985,
      "ided": 1986,
      "▁By": 1987,
      "▁consider": 1988,
      "▁yourself": 1989,
      "▁Apr": 1990,
      "▁safe": 1991,
      "▁common": 1992,
      "▁dam": 1993,
      "▁created": 1994,
      "gra": 1995,
      "▁happen": 1996,
      "go": 1997,
      "▁ful": 1998,
      "▁econom": 1999,
      "anced": 2000,
      "ps": 2001,
      "▁opportunity": 2002,
      "▁financial": 2003,
      "▁application": 2004,
      "▁Reg": 2005,
      "▁seen": 2006,
      "▁Some": 2007,
      "▁soon": 2008,
      "▁idea": 2009,
      "▁lov": 2010,
      "▁accom": 2011,
      "▁needed": 2012,
      "▁history": 2013,
      "▁watch": 2014,
      "back": 2015,
      "▁skin": 2016,
      "▁National": 2017,
      "▁x": 2018,
      "umb": 2019,
      "▁super": 2020,
      "▁tou": 2021,
      "aus": 2022,
      "▁announ": 2023,
      "indows": 2024,
      "▁later": 2025,
      "▁fast": 2026,
      "iple": 2027,
      "time": 2028,
      "▁skills": 2029,
      "▁potential": 2030,
      "aching": 2031,
      "▁Part": 2032,
      "▁bath": 2033,
      "ging": 2034,
      "▁entire": 2035,
      "▁Stud": 2036,
      "ino": 2037,
      "▁Bro": 2038,
      "▁etc": 2039,
      "▁phys": 2040,
      "▁diff": 2041,
      "▁function": 2042,
      "ires": 2043,
      "▁period": 2044,
      "▁image": 2045,
      "▁parent": 2046,
      "▁State": 2047,
      "idence": 2048,
      "▁fre": 2049,
      "▁excell": 2050,
      "▁Ab": 2051,
      "?<": 2052,
      "▁cond": 2053,
      "▁coll": 2054,
      "▁meas": 2055,
      "cript": 2056,
      "tend": 2057,
      "▁dou": 2058,
      "▁variety": 2059,
      "▁blog": 2060,
      "ees": 2061,
      "▁happy": 2062,
      "itch": 2063,
      "▁red": 2064,
      "▁brand": 2065,
      "airs": 2066,
      "▁save": 2067,
      "▁road": 2068,
      "▁paper": 2069,
      "▁foot": 2070,
      "▁fire": 2071,
      "apt": 2072,
      "▁whether": 2073,
      "▁forward": 2074,
      "ED": 2075,
      "▁projects": 2076,
      "▁network": 2077,
      "irc": 2078,
      "ification": 2079,
      "ication": 2080,
      "▁land": 2081,
      "▁fall": 2082,
      "▁init": 2083,
      "▁sales": 2084,
      "aid": 2085,
      "▁half": 2086,
      "par": 2087,
      "AL": 2088,
      "ued": 2089,
      "▁Jan": 2090,
      "▁either": 2091,
      "▁security": 2092,
      "▁simply": 2093,
      "▁answ": 2094,
      "icult": 2095,
      "▁went": 2096,
      "▁believe": 2097,
      "▁insurance": 2098,
      "▁providing": 2099,
      "▁users": 2100,
      "▁especially": 2101,
      "▁author": 2102,
      "▁film": 2103,
      "▁Are": 2104,
      "wh": 2105,
      "▁World": 2106,
      "▁sat": 2107,
      "▁Home": 2108,
      "▁problems": 2109,
      "opy": 2110,
      "▁represent": 2111,
      "▁Acc": 2112,
      "▁kitchen": 2113,
      "hing": 2114,
      "▁private": 2115,
      "▁tradition": 2116,
      "▁ways": 2117,
      "▁celebr": 2118,
      "▁Austr": 2119,
      "▁model": 2120,
      "▁activities": 2121,
      "▁items": 2122,
      "▁situ": 2123,
      "iate": 2124,
      "▁regular": 2125,
      "▁wonder": 2126,
      "▁Bra": 2127,
      "arl": 2128,
      "▁sugg": 2129,
      "▁equipment": 2130,
      "▁effic": 2131,
      "▁necess": 2132,
      "▁date": 2133,
      "▁learning": 2134,
      "▁self": 2135,
      "▁famil": 2136,
      "▁impact": 2137,
      "icated": 2138,
      "atform": 2139,
      "aily": 2140,
      "▁treatment": 2141,
      "▁cool": 2142,
      "acy": 2143,
      "▁version": 2144,
      "▁Center": 2145,
      "selves": 2146,
      "▁York": 2147,
      "▁quite": 2148,
      "▁clear": 2149,
      "▁April": 2150,
      "AC": 2151,
      "though": 2152,
      "▁file": 2153,
      "face": 2154,
      "▁Design": 2155,
      "verage": 2156,
      "▁solutions": 2157,
      "▁jour": 2158,
      "▁bott": 2159,
      "arden": 2160,
      "icro": 2161,
      "▁prob": 2162,
      "▁Us": 2163,
      "▁education": 2164,
      "▁ago": 2165,
      "▁Dep": 2166,
      "▁Sec": 2167,
      "ilar": 2168,
      "ES": 2169,
      "▁Fin": 2170,
      "▁Off": 2171,
      "▁exist": 2172,
      "▁choice": 2173,
      "▁built": 2174,
      "▁modern": 2175,
      "▁Bar": 2176,
      "▁member": 2177,
      "▁sale": 2178,
      "fr": 2179,
      "▁amazing": 2180,
      "▁kids": 2181,
      "idge": 2182,
      "anc": 2183,
      "ew": 2184,
      "▁collection": 2185,
      "▁Will": 2186,
      "▁taken": 2187,
      "▁drive": 2188,
      "▁materials": 2189,
      "▁via": 2190,
      "▁regard": 2191,
      "▁mor": 2192,
      "▁Gr": 2193,
      "▁nice": 2194,
      "▁Get": 2195,
      "▁ut": 2196,
      "IT": 2197,
      "▁official": 2198,
      "▁Aut": 2199,
      "▁takes": 2200,
      "▁allows": 2201,
      "▁spr": 2202,
      "era": 2203,
      "▁relationship": 2204,
      "▁original": 2205,
      "▁mix": 2206,
      "▁human": 2207,
      "IC": 2208,
      "▁coming": 2209,
      "▁easily": 2210,
      "▁party": 2211,
      "▁County": 2212,
      "▁consum": 2213,
      "▁almost": 2214,
      "▁UK": 2215,
      "▁Thanks": 2216,
      "imum": 2217,
      "▁summer": 2218,
      "EN": 2219,
      "▁held": 2220,
      "angu": 2221,
      "▁anything": 2222,
      "oura": 2223,
      "▁third": 2224,
      "▁additional": 2225,
      "▁cal": 2226,
      "uge": 2227,
      "▁location": 2228,
      "▁dri": 2229,
      "ground": 2230,
      "▁po": 2231,
      "▁Day": 2232,
      "▁expert": 2233,
      "▁Em": 2234,
      "▁standard": 2235,
      "▁signific": 2236,
      "ison": 2237,
      "▁hy": 2238,
      "▁continue": 2239,
      "ept": 2240,
      "edding": 2241,
      "▁wel": 2242,
      "▁difficult": 2243,
      "▁West": 2244,
      "▁More": 2245,
      "▁increase": 2246,
      "cil": 2247,
      "▁code": 2248,
      "▁sle": 2249,
      "eter": 2250,
      "head": 2251,
      "▁according": 2252,
      "▁question": 2253,
      "▁final": 2254,
      "overed": 2255,
      "▁previous": 2256,
      "▁running": 2257,
      "▁inside": 2258,
      "▁claim": 2259,
      "ada": 2260,
      "▁Air": 2261,
      "where": 2262,
      "▁Ed": 2263,
      "itor": 2264,
      "▁apply": 2265,
      "▁saf": 2266,
      "▁marketing": 2267,
      "▁sun": 2268,
      "ana": 2269,
      "▁production": 2270,
      "▁recogn": 2271,
      "▁fresh": 2272,
      "reme": 2273,
      "▁base": 2274,
      "orage": 2275,
      "▁song": 2276,
      "▁Ge": 2277,
      "▁Sw": 2278,
      "oud": 2279,
      "iring": 2280,
      "oogle": 2281,
      "▁position": 2282,
      "▁pret": 2283,
      "▁recommend": 2284,
      "▁lay": 2285,
      "▁deb": 2286,
      "ster": 2287,
      "pper": 2288,
      "▁leading": 2289,
      "ura": 2290,
      "▁Of": 2291,
      "ese": 2292,
      "▁dog": 2293,
      "▁changes": 2294,
      "▁practice": 2295,
      "▁writing": 2296,
      "▁estab": 2297,
      "itting": 2298,
      "▁issue": 2299,
      "▁Cor": 2300,
      "▁stra": 2301,
      "▁shows": 2302,
      "aving": 2303,
      "▁Austral": 2304,
      "gress": 2305,
      "▁swe": 2306,
      "▁Val": 2307,
      "▁user": 2308,
      "▁Art": 2309,
      "▁Int": 2310,
      "▁abs": 2311,
      "▁town": 2312,
      "hib": 2313,
      "▁Pres": 2314,
      "oman": 2315,
      "oid": 2316,
      "▁outside": 2317,
      "aging": 2318,
      "my": 2319,
      "ham": 2320,
      "▁received": 2321,
      "▁purchase": 2322,
      "olution": 2323,
      "iture": 2324,
      "elt": 2325,
      "▁international": 2326,
      "izes": 2327,
      "▁points": 2328,
      "mit": 2329,
      "▁crit": 2330,
      "▁favorite": 2331,
      "▁included": 2332,
      "▁associ": 2333,
      "iam": 2334,
      "▁parts": 2335,
      "▁rate": 2336,
      "....": 2337,
      "▁six": 2338,
      "▁role": 2339,
      "▁total": 2340,
      "ming": 2341,
      "▁screen": 2342,
      "▁Ag": 2343,
      "▁Pol": 2344,
      "ffe": 2345,
      "▁sche": 2346,
      "▁leave": 2347,
      "▁risk": 2348,
      "▁growth": 2349,
      "uit": 2350,
      "nes": 2351,
      "▁recently": 2352,
      "▁weeks": 2353,
      "▁platform": 2354,
      "▁bad": 2355,
      "▁option": 2356,
      "rs": 2357,
      "▁struct": 2358,
      "▁hon": 2359,
      "▁looks": 2360,
      "ecut": 2361,
      "aby": 2362,
      "wood": 2363,
      "▁anim": 2364,
      "▁His": 2365,
      "??": 2366,
      "etimes": 2367,
      "izing": 2368,
      "▁solution": 2369,
      "▁recent": 2370,
      "▁Mc": 2371,
      "▁pretty": 2372,
      "▁Every": 2373,
      "▁hair": 2374,
      "▁defin": 2375,
      "▁photos": 2376,
      "mas": 2377,
      "▁bal": 2378,
      "▁furn": 2379,
      "▁TH": 2380,
      "▁sent": 2381,
      "arget": 2382,
      "▁programs": 2383,
      "▁images": 2384,
      "▁deg": 2385,
      "▁accept": 2386,
      "new": 2387,
      "▁[": 2388,
      "▁mobile": 2389,
      "▁however": 2390,
      "▁excellent": 2391,
      "▁coun": 2392,
      "▁draw": 2393,
      "▁medical": 2394,
      "▁tools": 2395,
      "▁display": 2396,
      "▁Oct": 2397,
      "▁ground": 2398,
      "AS": 2399,
      "▁stock": 2400,
      "▁Let": 2401,
      "▁highly": 2402,
      "▁determ": 2403,
      "istration": 2404,
      "▁likely": 2405,
      "ellow": 2406,
      "▁quickly": 2407,
      "▁El": 2408,
      "icles": 2409,
      "▁inj": 2410,
      "▁collect": 2411,
      "▁March": 2412,
      "▁ple": 2413,
      "▁match": 2414,
      "▁posted": 2415,
      "▁significant": 2416,
      "▁feed": 2417,
      "▁exact": 2418,
      "▁related": 2419,
      "▁computer": 2420,
      "na": 2421,
      "▁matter": 2422,
      "▁innov": 2423,
      "▁meeting": 2424,
      "▁usually": 2425,
      "aced": 2426,
      "▁bud": 2427,
      "▁speak": 2428,
      "▁door": 2429,
      "▁floor": 2430,
      "ole": 2431,
      "bor": 2432,
      "▁plant": 2433,
      "▁commer": 2434,
      "irth": 2435,
      "▁behind": 2436,
      "▁board": 2437,
      "▁round": 2438,
      "▁prices": 2439,
      "▁trying": 2440,
      "▁tick": 2441,
      "ox": 2442,
      "▁introdu": 2443,
      "▁action": 2444,
      "▁fram": 2445,
      "hold": 2446,
      "based": 2447,
      "year": 2448,
      "ipe": 2449,
      "adem": 2450,
      "▁sil": 2451,
      "action": 2452,
      "▁lives": 2453,
      "▁stop": 2454,
      "▁goal": 2455,
      "▁Whe": 2456,
      "▁credit": 2457,
      "▁safety": 2458,
      "▁*": 2459,
      "itten": 2460,
      "▁mark": 2461,
      "urg": 2462,
      "▁...": 2463,
      "▁ded": 2464,
      "▁suggest": 2465,
      "▁Health": 2466,
      "opping": 2467,
      "ules": 2468,
      "▁else": 2469,
      "▁touch": 2470,
      "iday": 2471,
      "▁wanted": 2472,
      "sc": 2473,
      "▁worked": 2474,
      "▁cand": 2475,
      "▁clos": 2476,
      "▁stat": 2477,
      "ried": 2478,
      "▁Bus": 2479,
      "erve": 2480,
      "▁dom": 2481,
      "ha": 2482,
      "▁isn": 2483,
      "▁cam": 2484,
      "ublic": 2485,
      "▁digital": 2486,
      "cast": 2487,
      "▁request": 2488,
      "▁restaur": 2489,
      "▁worth": 2490,
      "▁told": 2491,
      "▁block": 2492,
      "▁House": 2493,
      "▁Ac": 2494,
      "▁plans": 2495,
      "▁corre": 2496,
      "▁concern": 2497,
      "▁fail": 2498,
      "▁challeng": 2499,
      "▁seem": 2500,
      "▁longer": 2501,
      "▁higher": 2502,
      "▁Also": 2503,
      "▁girl": 2504,
      "▁types": 2505,
      "IS": 2506,
      "▁Great": 2507,
      "put": 2508,
      "▁sess": 2509,
      "iable": 2510,
      "▁character": 2511,
      "▁squ": 2512,
      "▁costs": 2513,
      "uary": 2514,
      "▁cell": 2515,
      "▁condition": 2516,
      "ky": 2517,
      "▁couple": 2518,
      "▁Free": 2519,
      "ondon": 2520,
      "▁prior": 2521,
      "▁deliver": 2522,
      "▁leaders": 2523,
      "▁tit": 2524,
      "ishing": 2525,
      "▁teac": 2526,
      "▁student": 2527,
      "▁sens": 2528,
      "erc": 2529,
      "▁rad": 2530,
      "▁Par": 2531,
      "▁anyone": 2532,
      "OT": 2533,
      "▁commercial": 2534,
      "▁rent": 2535,
      "▁consult": 2536,
      "▁infl": 2537,
      "▁general": 2538,
      "▁contract": 2539,
      "▁send": 2540,
      "▁books": 2541,
      "▁ill": 2542,
      "▁arch": 2543,
      "▁career": 2544,
      "▁States": 2545,
      "▁glass": 2546,
      "▁:": 2547,
      "▁picture": 2548,
      "▁probably": 2549,
      "▁Black": 2550,
      "▁daily": 2551,
      "▁true": 2552,
      "▁prevent": 2553,
      "▁helps": 2554,
      "▁rout": 2555,
      "▁similar": 2556,
      "▁caus": 2557,
      "▁benefits": 2558,
      "▁suit": 2559,
      "▁encoura": 2560,
      "light": 2561,
      "hel": 2562,
      "▁qual": 2563,
      "▁reading": 2564,
      "▁Thank": 2565,
      "▁decor": 2566,
      "▁center": 2567,
      "▁fully": 2568,
      "▁ball": 2569,
      "▁mount": 2570,
      "board": 2571,
      "▁Gl": 2572,
      "▁Friday": 2573,
      "▁chance": 2574,
      "▁Sund": 2575,
      "oes": 2576,
      "oph": 2577,
      "▁remov": 2578,
      "earch": 2579,
      "▁piece": 2580,
      "▁requirements": 2581,
      "▁trust": 2582,
      "▁Her": 2583,
      "▁International": 2584,
      "unities": 2585,
      "▁planning": 2586,
      "▁Mon": 2587,
      "▁profession": 2588,
      "▁Up": 2589,
      "▁Sim": 2590,
      "ek": 2591,
      "▁resources": 2592,
      "▁approach": 2593,
      "▁Google": 2594,
      "▁Associ": 2595,
      "▁lif": 2596,
      "ters": 2597,
      "▁patients": 2598,
      "ville": 2599,
      "▁London": 2600,
      "eds": 2601,
      "▁circ": 2602,
      "▁bag": 2603,
      "rug": 2604,
      "▁paint": 2605,
      "▁deep": 2606,
      "reg": 2607,
      "reng": 2608,
      "▁tal": 2609,
      "▁article": 2610,
      "mon": 2611,
      "▁Sept": 2612,
      "ached": 2613,
      "plement": 2614,
      "▁holid": 2615,
      "▁TV": 2616,
      "▁vehicle": 2617,
      "OU": 2618,
      "▁loss": 2619,
      "▁agree": 2620,
      "▁partners": 2621,
      "▁green": 2622,
      "itut": 2623,
      "▁gold": 2624,
      "▁pictures": 2625,
      "▁lit": 2626,
      "▁dest": 2627,
      "▁ability": 2628,
      "just": 2629,
      "▁Sal": 2630,
      "▁entry": 2631,
      "▁enter": 2632,
      "atory": 2633,
      "▁Soc": 2634,
      "▁prem": 2635,
      "▁Direct": 2636,
      "ension": 2637,
      "empt": 2638,
      "▁inde": 2639,
      "▁First": 2640,
      "▁protect": 2641,
      "▁client": 2642,
      "▁langu": 2643,
      ".”": 2644,
      "▁Most": 2645,
      "ze": 2646,
      "▁lower": 2647,
      "arant": 2648,
      "uk": 2649,
      "org": 2650,
      "▁op": 2651,
      "▁Then": 2652,
      "▁gives": 2653,
      "▁Add": 2654,
      "iddle": 2655,
      "▁directly": 2656,
      "mm": 2657,
      "▁fab": 2658,
      "▁Face": 2659,
      "▁words": 2660,
      "▁rather": 2661,
      "▁Group": 2662,
      "▁necessary": 2663,
      "▁global": 2664,
      "▁morning": 2665,
      "▁Click": 2666,
      "▁Satur": 2667,
      "▁Aug": 2668,
      "▁Ins": 2669,
      "aign": 2670,
      "▁Book": 2671,
      "▁heav": 2672,
      "▁dry": 2673,
      "▁June": 2674,
      "▁national": 2675,
      "inary": 2676,
      "rec": 2677,
      "▁warm": 2678,
      "▁applications": 2679,
      "▁Act": 2680,
      "ington": 2681,
      "▁Feb": 2682,
      "▁conditions": 2683,
      "▁release": 2684,
      "arth": 2685,
      "▁dress": 2686,
      "▁neg": 2687,
      "▁traditional": 2688,
      "▁admin": 2689,
      "▁businesses": 2690,
      "▁emb": 2691,
      "▁involved": 2692,
      "▁cannot": 2693,
      "▁fix": 2694,
      "▁Rem": 2695,
      "▁respect": 2696,
      "hern": 2697,
      "ought": 2698,
      "▁ones": 2699,
      "▁weeke": 2700,
      "ivery": 2701,
      "hood": 2702,
      "▁target": 2703,
      "▁players": 2704,
      "▁Red": 2705,
      "▁Any": 2706,
      "▁aw": 2707,
      "ipping": 2708,
      "idents": 2709,
      "arter": 2710,
      "ivity": 2711,
      "▁cause": 2712,
      "pose": 2713,
      "▁hands": 2714,
      "▁average": 2715,
      "▁multiple": 2716,
      "▁achieve": 2717,
      "▁Well": 2718,
      "istic": 2719,
      "▁storage": 2720,
      "▁Dav": 2721,
      "▁roll": 2722,
      "▁photo": 2723,
      "▁fig": 2724,
      "ively": 2725,
      "isf": 2726,
      "illing": 2727,
      "▁trip": 2728,
      "▁levels": 2729,
      "cription": 2730,
      "▁America": 2731,
      "ysis": 2732,
      "▁emer": 2733,
      "ny": 2734,
      "AM": 2735,
      "▁heat": 2736,
      "▁India": 2737,
      "▁San": 2738,
      "▁Each": 2739,
      "oke": 2740,
      "▁separ": 2741,
      "iding": 2742,
      "▁machine": 2743,
      "▁interested": 2744,
      "▁reach": 2745,
      "▁late": 2746,
      "▁norm": 2747,
      "▁gradu": 2748,
      "▁Christmas": 2749,
      "ples": 2750,
      "▁integr": 2751,
      "▁Mus": 2752,
      "▁mass": 2753,
      "▁Once": 2754,
      "▁offering": 2755,
      "▁Many": 2756,
      "▁drink": 2757,
      "▁Out": 2758,
      "▁sett": 2759,
      "▁Cons": 2760,
      "▁prim": 2761,
      "▁Cr": 2762,
      "▁weight": 2763,
      "▁lic": 2764,
      "We": 2765,
      "▁pers": 2766,
      "ober": 2767,
      "▁firm": 2768,
      "iation": 2769,
      "▁commit": 2770,
      "▁construction": 2771,
      "ipped": 2772,
      "val": 2773,
      "▁Cle": 2774,
      "▁bank": 2775,
      "▁playing": 2776,
      "▁opportunities": 2777,
      "▁Mr": 2778,
      "▁connect": 2779,
      "▁polit": 2780,
      "▁Ser": 2781,
      "▁award": 2782,
      "vey": 2783,
      "▁aim": 2784,
      "▁Saturday": 2785,
      "rown": 2786,
      "▁huge": 2787,
      "▁policy": 2788,
      "iles": 2789,
      "ooth": 2790,
      "▁device": 2791,
      "▁immed": 2792,
      "now": 2793,
      "▁moment": 2794,
      "▁giving": 2795,
      "//": 2796,
      "str": 2797,
      "▁Net": 2798,
      "partment": 2799,
      "▁creating": 2800,
      "▁organization": 2801,
      "nal": 2802,
      "▁implement": 2803,
      "▁document": 2804,
      "▁Coun": 2805,
      "▁Afric": 2806,
      "▁Sam": 2807,
      "▁parents": 2808,
      "▁gar": 2809,
      "▁streng": 2810,
      "atives": 2811,
      "door": 2812,
      "▁Har": 2813,
      "▁lab": 2814,
      "artment": 2815,
      "▁successful": 2816,
      "▁legal": 2817,
      "▁wedding": 2818,
      "▁cy": 2819,
      "▁bedroom": 2820,
      "▁essential": 2821,
      "▁repair": 2822,
      "▁upon": 2823,
      "▁source": 2824,
      "▁Pat": 2825,
      "eal": 2826,
      "▁asked": 2827,
      "▁Why": 2828,
      "▁appl": 2829,
      "▁budget": 2830,
      "▁nothing": 2831,
      "lim": 2832,
      "▁developed": 2833,
      "▁English": 2834,
      "▁gift": 2835,
      "▁seems": 2836,
      "ades": 2837,
      "▁La": 2838,
      "asons": 2839,
      "▁club": 2840,
      "ares": 2841,
      "▁attention": 2842,
      "▁Best": 2843,
      "erous": 2844,
      "▁Business": 2845,
      "▁Check": 2846,
      "▁Post": 2847,
      "▁Service": 2848,
      "▁Sunday": 2849,
      "▁max": 2850,
      "▁--": 2851,
      "aged": 2852,
      "▁January": 2853,
      "uel": 2854,
      "▁gen": 2855,
      "▁Over": 2856,
      "▁countries": 2857,
      "▁decision": 2858,
      "enty": 2859,
      "://": 2860,
      "▁Since": 2861,
      "▁China": 2862,
      "ties": 2863,
      "iff": 2864,
      "ashion": 2865,
      "pri": 2866,
      "aches": 2867,
      "▁Read": 2868,
      "abin": 2869,
      "▁categ": 2870,
      "itation": 2871,
      "▁hotel": 2872,
      "▁section": 2873,
      "▁Techn": 2874,
      "▁dream": 2875,
      "irit": 2876,
      "▁promot": 2877,
      "▁Tod": 2878,
      "▁wonderful": 2879,
      "▁surpr": 2880,
      "▁employees": 2881,
      "▁Mod": 2882,
      "▁released": 2883,
      "▁experienced": 2884,
      "▁Mond": 2885,
      "aves": 2886,
      "ault": 2887,
      "▁fine": 2888,
      "▁goals": 2889,
      "▁sites": 2890,
      "ule": 2891,
      "▁July": 2892,
      "▁|": 2893,
      "▁campaign": 2894,
      "itely": 2895,
      "▁answer": 2896,
      "▁Calif": 2897,
      "▁decided": 2898,
      "▁October": 2899,
      "▁except": 2900,
      "▁healthy": 2901,
      "▁cases": 2902,
      "raft": 2903,
      "▁supply": 2904,
      "iol": 2905,
      "▁complex": 2906,
      "▁capt": 2907,
      "▁Facebook": 2908,
      "▁shop": 2909,
      "▁President": 2910,
      "enge": 2911,
      "sy": 2912,
      "\".": 2913,
      "▁sold": 2914,
      "▁afford": 2915,
      "▁pool": 2916,
      "igation": 2917,
      "▁suppl": 2918,
      "▁wish": 2919,
      "urb": 2920,
      "▁hit": 2921,
      "▁homes": 2922,
      "▁cat": 2923,
      "ara": 2924,
      "▁highest": 2925,
      "orge": 2926,
      "▁interesting": 2927,
      "like": 2928,
      "▁strateg": 2929,
      "▁completely": 2930,
      "▁September": 2931,
      "isc": 2932,
      "▁Down": 2933,
      "ask": 2934,
      "▁£": 2935,
      "▁join": 2936,
      "▁Prof": 2937,
      "ude": 2938,
      "▁expected": 2939,
      "OM": 2940,
      "gar": 2941,
      "▁instru": 2942,
      "▁extreme": 2943,
      "▁appoint": 2944,
      "▁hous": 2945,
      "agn": 2946,
      "▁cash": 2947,
      "▁hour": 2948,
      "▁offe": 2949,
      "▁vac": 2950,
      "fects": 2951,
      "ester": 2952,
      "▁Find": 2953,
      "imately": 2954,
      "▁speed": 2955,
      "▁positive": 2956,
      "▁note": 2957,
      "▁families": 2958,
      "▁garden": 2959,
      "▁former": 2960,
      "▁enh": 2961,
      "mission": 2962,
      "▁growing": 2963,
      "aker": 2964,
      "▁written": 2965,
      "▁guide": 2966,
      "aly": 2967,
      "▁dise": 2968,
      "▁earn": 2969,
      "▁Look": 2970,
      "▁Mich": 2971,
      "▁lost": 2972,
      "▁instead": 2973,
      "▁serve": 2974,
      "▁aware": 2975,
      "▁photograph": 2976,
      "▁goes": 2977,
      "▁rock": 2978,
      "▁replace": 2979,
      "lock": 2980,
      "ama": 2981,
      "▁guarant": 2982,
      "▁remember": 2983,
      "▁express": 2984,
      "▁seek": 2985,
      "▁mat": 2986,
      "▁condu": 2987,
      "▁Trans": 2988,
      "▁Department": 2989,
      "ING": 2990,
      "▁smart": 2991,
      "ores": 2992,
      "ET": 2993,
      "▁satisf": 2994,
      "▁birth": 2995,
      "ovember": 2996,
      "▁groups": 2997,
      "▁weekend": 2998,
      "▁surround": 2999,
      "▁manufacture": 3000,
      "amb": 3001,
      "▁write": 3002,
      "▁terms": 3003,
      "▁serious": 3004,
      "iant": 3005,
      "▁Services": 3006,
      "▁Gener": 3007,
      "▁death": 3008,
      "▁saw": 3009,
      "▁dep": 3010,
      "▁Rec": 3011,
      "mod": 3012,
      "▁starting": 3013,
      "apan": 3014,
      "ornia": 3015,
      "▁furniture": 3016,
      "▁eye": 3017,
      "▁concept": 3018,
      "▁message": 3019,
      "▁sty": 3020,
      "zy": 3021,
      "rup": 3022,
      "▁subject": 3023,
      "▁Ant": 3024,
      "olf": 3025,
      "▁ep": 3026,
      "▁Good": 3027,
      "▁imm": 3028,
      "aul": 3029,
      "cember": 3030,
      "house": 3031,
      "wide": 3032,
      "▁itself": 3033,
      "”.": 3034,
      "▁advant": 3035,
      "▁farm": 3036,
      "▁organiz": 3037,
      "▁cross": 3038,
      "istry": 3039,
      "ening": 3040,
      "▁themselves": 3041,
      "▁impress": 3042,
      "OS": 3043,
      "▁published": 3044,
      "key": 3045,
      "▁System": 3046,
      "bit": 3047,
      "clus": 3048,
      "▁hear": 3049,
      "▁load": 3050,
      "dule": 3051,
      "ague": 3052,
      "▁places": 3053,
      "▁spend": 3054,
      "▁Brit": 3055,
      "▁Hot": 3056,
      "▁carry": 3057,
      "▁mid": 3058,
      "▁affect": 3059,
      "▁Bel": 3060,
      "▁College": 3061,
      "▁iP": 3062,
      "▁Monday": 3063,
      "porate": 3064,
      "▁investment": 3065,
      "▁delivery": 3066,
      "▁consist": 3067,
      "EC": 3068,
      "▁Make": 3069,
      "▁pages": 3070,
      "ma": 3071,
      "▁individuals": 3072,
      "▁Del": 3073,
      "▁sense": 3074,
      "▁copy": 3075,
      "lin": 3076,
      "▁finish": 3077,
      "ospital": 3078,
      "▁Germ": 3079,
      "▁moving": 3080,
      "▁ideal": 3081,
      "▁Port": 3082,
      "▁pattern": 3083,
      "▁neigh": 3084,
      "▁East": 3085,
      "mark": 3086,
      "▁describ": 3087,
      "▁November": 3088,
      "ength": 3089,
      "▁limited": 3090,
      "elling": 3091,
      "St": 3092,
      "▁California": 3093,
      "▁Call": 3094,
      "▁wait": 3095,
      "▁correct": 3096,
      "▁bathroom": 3097,
      "itute": 3098,
      "▁industr": 3099,
      "ocol": 3100,
      "▁Inter": 3101,
      "▁region": 3102,
      "▁slow": 3103,
      "▁transport": 3104,
      "▁selection": 3105,
      "▁IN": 3106,
      "▁August": 3107,
      "cies": 3108,
      "▁comfortable": 3109,
      "ological": 3110,
      "▁Go": 3111,
      "pped": 3112,
      "▁December": 3113,
      "umn": 3114,
      "onse": 3115,
      "enance": 3116,
      "▁path": 3117,
      "▁tele": 3118,
      "▁Even": 3119,
      "▁Ang": 3120,
      "▁ble": 3121,
      "▁avoid": 3122,
      "ube": 3123,
      "LL": 3124,
      "▁temper": 3125,
      "che": 3126,
      "▁stress": 3127,
      "bum": 3128,
      "ceed": 3129,
      "▁Cour": 3130,
      "▁bi": 3131,
      "idered": 3132,
      "anch": 3133,
      "amed": 3134,
      "▁estate": 3135,
      "iction": 3136,
      "▁led": 3137,
      "ruary": 3138,
      "ett": 3139,
      "off": 3140,
      "▁Windows": 3141,
      "▁Gold": 3142,
      "▁Spr": 3143,
      "▁Street": 3144,
      "▁towards": 3145,
      "TM": 3146,
      "▁div": 3147,
      "▁baby": 3148,
      "▁court": 3149,
      "▁adult": 3150,
      "yond": 3151,
      "iling": 3152,
      "ibrary": 3153,
      "▁ult": 3154,
      "▁prec": 3155,
      "EO": 3156,
      "▁War": 3157,
      "▁largest": 3158,
      "▁coffe": 3159,
      "▁King": 3160,
      "▁double": 3161,
      "▁helping": 3162,
      "▁announced": 3163,
      "▁ge": 3164,
      "urt": 3165,
      "▁advice": 3166,
      "rench": 3167,
      "▁schools": 3168,
      "▁dark": 3169,
      "▁attack": 3170,
      "▁owners": 3171,
      "▁uses": 3172,
      "AP": 3173,
      "▁collabor": 3174,
      "▁band": 3175,
      "▁effort": 3176,
      "▁nature": 3177,
      "▁ing": 3178,
      "▁files": 3179,
      "itter": 3180,
      "ancy": 3181,
      "▁blue": 3182,
      "▁attend": 3183,
      "ses": 3184,
      "▁loved": 3185,
      "▁weather": 3186,
      "rought": 3187,
      "▁creative": 3188,
      "▁offered": 3189,
      "isions": 3190,
      "▁efficient": 3191,
      "▁fair": 3192,
      "mat": 3193,
      "inner": 3194,
      "▁Found": 3195,
      "right": 3196,
      "▁language": 3197,
      "▁hor": 3198,
      "▁exactly": 3199,
      "▁Market": 3200,
      "pendent": 3201,
      "idential": 3202,
      "itect": 3203,
      "pre": 3204,
      "▁Today": 3205,
      "▁damage": 3206,
      "icate": 3207,
      "▁Japan": 3208,
      "ida": 3209,
      "▁+": 3210,
      "▁internet": 3211,
      "▁progress": 3212,
      "▁regarding": 3213,
      "▁broad": 3214,
      "▁devices": 3215,
      "ica": 3216,
      "▁Law": 3217,
      "band": 3218,
      "▁altern": 3219,
      "ager": 3220,
      "oming": 3221,
      "▁rev": 3222,
      "▁Use": 3223,
      "▁annual": 3224,
      "▁active": 3225,
      "▁benefit": 3226,
      "▁See": 3227,
      "▁February": 3228,
      "▁obt": 3229,
      "coming": 3230,
      "▁reduce": 3231,
      "▁myself": 3232,
      "▁Work": 3233,
      "useum": 3234,
      "▁began": 3235,
      "▁relax": 3236,
      "▁understanding": 3237,
      "▁>": 3238,
      "▁gets": 3239,
      "▁Green": 3240,
      "aries": 3241,
      "▁execut": 3242,
      "▁Have": 3243,
      "▁existing": 3244,
      "▁drug": 3245,
      "▁htt": 3246,
      "▁completed": 3247,
      "▁White": 3248,
      "▁steel": 3249,
      "▁conven": 3250,
      "▁nut": 3251,
      "ils": 3252,
      "▁easier": 3253,
      "gu": 3254,
      "enior": 3255,
      "▁craft": 3256,
      "▁Produ": 3257,
      "▁experts": 3258,
      "▁physical": 3259,
      "▁sleep": 3260,
      "▁coffee": 3261,
      "pm": 3262,
      "▁rates": 3263,
      "▁professionals": 3264,
      "▁assess": 3265,
      "▁ten": 3266,
      "▁rights": 3267,
      "porary": 3268,
      "▁obs": 3269,
      "▁sam": 3270,
      "▁definitely": 3271,
      "ications": 3272,
      "▁mother": 3273,
      "Th": 3274,
      "▁analy": 3275,
      "▁thinking": 3276,
      "▁analysis": 3277,
      "▁gas": 3278,
      "▁button": 3279,
      "attle": 3280,
      "▁unit": 3281,
      "▁lots": 3282,
      "▁drop": 3283,
      "▁mention": 3284,
      "oul": 3285,
      "wor": 3286,
      "▁contribut": 3287,
      "▁sometimes": 3288,
      "▁comment": 3289,
      "roid": 3290,
      "ID": 3291,
      "ulations": 3292,
      "▁IT": 3293,
      "▁ver": 3294,
      "urning": 3295,
      "▁Wash": 3296,
      "▁wear": 3297,
      "▁pet": 3298,
      "▁Class": 3299,
      "▁movie": 3300,
      "unte": 3301,
      "▁Love": 3302,
      "▁exhib": 3303,
      "▁Loc": 3304,
      "▁tag": 3305,
      "vant": 3306,
      "hens": 3307,
      "rows": 3308,
      "▁Play": 3309,
      "▁opp": 3310,
      "▁setting": 3311,
      "pects": 3312,
      "▁Whether": 3313,
      "▁stage": 3314,
      "▁Other": 3315,
      "agram": 3316,
      "▁activity": 3317,
      "▁window": 3318,
      "▁subs": 3319,
      "asc": 3320,
      "▁Canada": 3321,
      "chan": 3322,
      "▁propos": 3323,
      "▁batter": 3324,
      "olute": 3325,
      "des": 3326,
      "▁•": 3327,
      "▁contain": 3328,
      "▁lock": 3329,
      "▁charge": 3330,
      "word": 3331,
      "▁histor": 3332,
      "▁apprec": 3333,
      "▁frame": 3334,
      "▁Wed": 3335,
      "oms": 3336,
      "▁object": 3337,
      "▁hop": 3338,
      "▁became": 3339,
      "▁Australia": 3340,
      "▁Program": 3341,
      "▁exerc": 3342,
      "▁attempt": 3343,
      "▁AN": 3344,
      "▁boy": 3345,
      "▁Dist": 3346,
      "▁Vis": 3347,
      "▁convers": 3348,
      "▁Spe": 3349,
      "▁feet": 3350,
      "oles": 3351,
      "▁thanks": 3352,
      "cel": 3353,
      "vest": 3354,
      "▁sweet": 3355,
      "▁advert": 3356,
      "▁secure": 3357,
      "ederal": 3358,
      "icious": 3359,
      "alu": 3360,
      "▁eat": 3361,
      "ronic": 3362,
      "▁teams": 3363,
      "ertain": 3364,
      "▁reported": 3365,
      "▁bow": 3366,
      "▁Club": 3367,
      "▁dire": 3368,
      "▁electric": 3369,
      "roud": 3370,
      "▁Russ": 3371,
      "antly": 3372,
      "▁item": 3373,
      "▁flav": 3374,
      "den": 3375,
      "▁overall": 3376,
      "▁played": 3377,
      "▁repl": 3378,
      "▁Av": 3379,
      "▁adjust": 3380,
      "▁purpose": 3381,
      "▁sports": 3382,
      "▁discount": 3383,
      "▁cleaning": 3384,
      "▁pressure": 3385,
      "▁interview": 3386,
      "▁Develop": 3387,
      "▁pull": 3388,
      "unk": 3389,
      "▁wrong": 3390,
      "▁background": 3391,
      "iques": 3392,
      "ategy": 3393,
      "▁spot": 3394,
      "▁reve": 3395,
      "▁appropri": 3396,
      "estival": 3397,
      "▁Hall": 3398,
      "PS": 3399,
      "▁influ": 3400,
      "▁blood": 3401,
      "ira": 3402,
      "ios": 3403,
      "anging": 3404,
      "▁cards": 3405,
      "▁proced": 3406,
      "▁distribut": 3407,
      "▁degree": 3408,
      "AD": 3409,
      "▁plus": 3410,
      "▁acqu": 3411,
      "bert": 3412,
      "▁sus": 3413,
      "tended": 3414,
      "▁stories": 3415,
      "▁difference": 3416,
      "▁compon": 3417,
      "▁dedicated": 3418,
      "imal": 3419,
      "▁colors": 3420,
      "▁pieces": 3421,
      "zz": 3422,
      "▁Internet": 3423,
      "ologies": 3424,
      "change": 3425,
      "▁demand": 3426,
      "▁holiday": 3427,
      "▁schedule": 3428,
      "allery": 3429,
      "rast": 3430,
      "▁pow": 3431,
      "▁welcome": 3432,
      "▁considered": 3433,
      "unt": 3434,
      "▁Phot": 3435,
      "▁stuff": 3436,
      "iced": 3437,
      "▁Je": 3438,
      "▁album": 3439,
      "ibly": 3440,
      "▁Association": 3441,
      "ancing": 3442,
      "formation": 3443,
      "▁fight": 3444,
      "▁Dec": 3445,
      "ded": 3446,
      "▁Thurs": 3447,
      "▁Lear": 3448,
      "odes": 3449,
      "rences": 3450,
      "tee": 3451,
      "▁retail": 3452,
      "▁Indian": 3453,
      "bon": 3454,
      "--": 3455,
      "rel": 3456,
      "▁shopping": 3457,
      "▁Company": 3458,
      "▁situation": 3459,
      "▁fant": 3460,
      "▁Year": 3461,
      "In": 3462,
      "▁dy": 3463,
      "field": 3464,
      "inter": 3465,
      "▁candid": 3466,
      "▁truly": 3467,
      "erved": 3468,
      "▁stick": 3469,
      "▁Office": 3470,
      "▁train": 3471,
      "wise": 3472,
      "▁response": 3473,
      "▁spent": 3474,
      "▁Sk": 3475,
      "▁partner": 3476,
      "▁protection": 3477,
      "▁European": 3478,
      "▁surface": 3479,
      "▁journey": 3480,
      "▁friendly": 3481,
      "▁reviews": 3482,
      "▁player": 3483,
      "▁basic": 3484,
      "▁lands": 3485,
      "icing": 3486,
      "▁feeling": 3487,
      "▁culture": 3488,
      "esome": 3489,
      "▁colle": 3490,
      "ders": 3491,
      "▁stru": 3492,
      "het": 3493,
      "haps": 3494,
      "▁reports": 3495,
      "▁prefer": 3496,
      "▁Council": 3497,
      "rapy": 3498,
      "▁thous": 3499,
      "▁models": 3500,
      "duc": 3501,
      "▁Sch": 3502,
      "▁college": 3503,
      "▁pred": 3504,
      "▁guests": 3505,
      "▁fill": 3506,
      "▁PC": 3507,
      "▁wind": 3508,
      "▁trade": 3509,
      "ald": 3510,
      "▁graph": 3511,
      "▁basis": 3512,
      "▁initial": 3513,
      "▁bottom": 3514,
      "▁paid": 3515,
      "▁Open": 3516,
      "▁Tues": 3517,
      "▁thank": 3518,
      "usher": 3519,
      "▁served": 3520,
      "▁installation": 3521,
      "▁err": 3522,
      "▁produce": 3523,
      "▁finished": 3524,
      "▁update": 3525,
      "▁Pal": 3526,
      "iately": 3527,
      "▁According": 3528,
      "▁Phil": 3529,
      "atically": 3530,
      "▁straight": 3531,
      "▁Road": 3532,
      "▁payment": 3533,
      "▁Mac": 3534,
      "xic": 3535,
      "▁Thursday": 3536,
      "▁frequ": 3537,
      "▁sust": 3538,
      "▁nation": 3539,
      "▁roof": 3540,
      "▁flex": 3541,
      "ey": 3542,
      "▁THE": 3543,
      "▁vict": 3544,
      "ship": 3545,
      "▁Sub": 3546,
      "▁driving": 3547,
      "▁expand": 3548,
      "▁advanced": 3549,
      "▁Micro": 3550,
      "arlier": 3551,
      "hol": 3552,
      "▁imag": 3553,
      "▁depe": 3554,
      "▁facilities": 3555,
      "▁respond": 3556,
      "icip": 3557,
      "▁outdoor": 3558,
      "▁listed": 3559,
      "▁continu": 3560,
      "que": 3561,
      "▁fashion": 3562,
      "▁cold": 3563,
      "▁Flor": 3564,
      "▁designs": 3565,
      "fl": 3566,
      "▁passion": 3567,
      "phone": 3568,
      "▁miles": 3569,
      "uth": 3570,
      "▁Mem": 3571,
      "rey": 3572,
      "▁lines": 3573,
      "ixt": 3574,
      "▁lik": 3575,
      "▁wine": 3576,
      "▁maintenance": 3577,
      "▁responsible": 3578,
      "▁Water": 3579,
      "▁Web": 3580,
      "▁cup": 3581,
      "▁Download": 3582,
      "▁views": 3583,
      "▁smooth": 3584,
      "▁increasing": 3585,
      "▁Met": 3586,
      "overn": 3587,
      "▁Tex": 3588,
      "▁rooms": 3589,
      "iger": 3590,
      "▁beyond": 3591,
      "▁challenge": 3592,
      "▁powerful": 3593,
      "▁useful": 3594,
      "▁demon": 3595,
      "▁vill": 3596,
      "▁dead": 3597,
      "▁Educ": 3598,
      "▁Plan": 3599,
      "▁tips": 3600,
      "erg": 3601,
      "lands": 3602,
      "▁proud": 3603,
      "tion": 3604,
      "▁occas": 3605,
      "aught": 3606,
      "▁IS": 3607,
      "▁Top": 3608,
      "▁beginning": 3609,
      "▁Oh": 3610,
      "▁tried": 3611,
      "care": 3612,
      "▁patient": 3613,
      "▁clin": 3614,
      "oices": 3615,
      "▁master": 3616,
      "▁viol": 3617,
      "▁subst": 3618,
      "▁Wednes": 3619,
      "▁sand": 3620,
      "▁behav": 3621,
      "▁technical": 3622,
      "istics": 3623,
      "▁manage": 3624,
      "▁During": 3625,
      "▁Take": 3626,
      "cause": 3627,
      "▁Care": 3628,
      "▁metal": 3629,
      "usion": 3630,
      "net": 3631,
      "▁brought": 3632,
      "LE": 3633,
      "▁attract": 3634,
      "cape": 3635,
      "▁ingred": 3636,
      "▁eyes": 3637,
      "▁war": 3638,
      "▁Tuesday": 3639,
      "▁Last": 3640,
      "▁Mor": 3641,
      "▁police": 3642,
      "▁Although": 3643,
      "▁length": 3644,
      "IP": 3645,
      "▁steps": 3646,
      "▁aff": 3647,
      "▁util": 3648,
      "pite": 3649,
      "▁jud": 3650,
      "▁approx": 3651,
      "▁explore": 3652,
      "▁gave": 3653,
      "▁numbers": 3654,
      "▁title": 3655,
      "iend": 3656,
      "▁immediately": 3657,
      "venue": 3658,
      "aling": 3659,
      "▁mill": 3660,
      "used": 3661,
      "▁Board": 3662,
      "▁winter": 3663,
      "itary": 3664,
      "▁classic": 3665,
      "oos": 3666,
      "estern": 3667,
      "▁Management": 3668,
      "▁transfer": 3669,
      "iny": 3670,
      "▁cars": 3671,
      "▁pen": 3672,
      "alt": 3673,
      "▁reasons": 3674,
      "▁map": 3675,
      "▁extremely": 3676,
      "nown": 3677,
      "▁camera": 3678,
      "▁standards": 3679,
      "ael": 3680,
      "▁dat": 3681,
      "▁finally": 3682,
      "▁Sing": 3683,
      "undred": 3684,
      "▁son": 3685,
      "inated": 3686,
      "▁emot": 3687,
      "acity": 3688,
      "tra": 3689,
      "▁wild": 3690,
      "▁heard": 3691,
      "▁spirit": 3692,
      "▁doll": 3693,
      "aughter": 3694,
      "oe": 3695,
      "▁incred": 3696,
      "▁effects": 3697,
      "▁owner": 3698,
      "▁lux": 3699,
      "oly": 3700,
      "▁shoot": 3701,
      "▁sharing": 3702,
      "▁session": 3703,
      "▁colour": 3704,
      "dy": 3705,
      "▁David": 3706,
      "▁cru": 3707,
      "izz": 3708,
      "▁ahead": 3709,
      "▁Ir": 3710,
      "It": 3711,
      "ned": 3712,
      "▁cream": 3713,
      "ieved": 3714,
      "▁Jack": 3715,
      "enture": 3716,
      "▁Bank": 3717,
      "▁opening": 3718,
      "▁covered": 3719,
      "▁exclus": 3720,
      "ously": 3721,
      "ences": 3722,
      "dom": 3723,
      "▁strength": 3724,
      "▁woman": 3725,
      "sp": 3726,
      "▁measure": 3727,
      "▁mission": 3728,
      "▁Profess": 3729,
      "▁fra": 3730,
      "▁Mag": 3731,
      "▁Super": 3732,
      "▁Wednesday": 3733,
      "▁nearly": 3734,
      "arc": 3735,
      "▁identify": 3736,
      "▁absolute": 3737,
      "▁accommod": 3738,
      "▁remove": 3739,
      "▁meaning": 3740,
      "set": 3741,
      "▁Hel": 3742,
      "orial": 3743,
      "▁strategy": 3744,
      "▁onto": 3745,
      "hy": 3746,
      "mitted": 3747,
      "▁handle": 3748,
      "BC": 3749,
      "▁increased": 3750,
      "▁Contact": 3751,
      "▁motor": 3752,
      "▁appropriate": 3753,
      "▁beauty": 3754,
      "irr": 3755,
      "▁contains": 3756,
      "▁helped": 3757,
      "force": 3758,
      "fit": 3759,
      "inate": 3760,
      "▁cas": 3761,
      "▁tim": 3762,
      "▁cabin": 3763,
      "▁established": 3764,
      "▁Wood": 3765,
      "unning": 3766,
      "▁advantage": 3767,
      "▁felt": 3768,
      "▁challenges": 3769,
      "▁disease": 3770,
      "▁fans": 3771,
      "▁Lake": 3772,
      "sych": 3773,
      "▁wasn": 3774,
      "▁organizations": 3775,
      "fast": 3776,
      "▁race": 3777,
      "more": 3778,
      "▁u": 3779,
      "▁launch": 3780,
      "▁ST": 3781,
      "▁Jes": 3782,
      "▁Cam": 3783,
      "▁cheap": 3784,
      "▁chem": 3785,
      "lement": 3786,
      "ports": 3787,
      "▁structure": 3788,
      "▁Wall": 3789,
      "▁French": 3790,
      "order": 3791,
      "ulated": 3792,
      "▁Texas": 3793,
      "▁Str": 3794,
      "▁evening": 3795,
      "▁Bay": 3796,
      "ston": 3797,
      "▁evalu": 3798,
      "▁Cur": 3799,
      "▁fan": 3800,
      "▁worksh": 3801,
      "▁stream": 3802,
      "▁mer": 3803,
      "▁peace": 3804,
      "▁Sur": 3805,
      "plate": 3806,
      "▁wants": 3807,
      "▁spread": 3808,
      "▁experiences": 3809,
      "▁volunte": 3810,
      "▁Ve": 3811,
      "▁Ide": 3812,
      "soft": 3813,
      "▁jobs": 3814,
      "▁grand": 3815,
      "othing": 3816,
      "▁fly": 3817,
      "▁associated": 3818,
      "met": 3819,
      "▁thr": 3820,
      "OL": 3821,
      "▁occur": 3822,
      "▁capital": 3823,
      "▁Rock": 3824,
      "▁properties": 3825,
      "▁beach": 3826,
      "▁normal": 3827,
      "▁Research": 3828,
      "▁maintain": 3829,
      "▁Mount": 3830,
      "▁shape": 3831,
      "▁fat": 3832,
      "ari": 3833,
      "ales": 3834,
      "pet": 3835,
      "▁methods": 3836,
      "ris": 3837,
      "▁artist": 3838,
      "▁dining": 3839,
      "▁conference": 3840,
      "▁Apple": 3841,
      "▁chann": 3842,
      "▁changed": 3843,
      "arily": 3844,
      "▁Hy": 3845,
      "rehens": 3846,
      "atever": 3847,
      "▁shown": 3848,
      "▁Dan": 3849,
      "▁Washington": 3850,
      "▁heavy": 3851,
      "▁techniques": 3852,
      "▁traffic": 3853,
      "standing": 3854,
      "▁particularly": 3855,
      "▁Yes": 3856,
      "▁economic": 3857,
      "akers": 3858,
      "▁Child": 3859,
      "▁Som": 3860,
      "▁Paul": 3861,
      "▁billion": 3862,
      "▁Custom": 3863,
      "▁Ann": 3864,
      "rem": 3865,
      "EL": 3866,
      "▁solid": 3867,
      "▁remain": 3868,
      "ION": 3869,
      "▁driver": 3870,
      "▁cast": 3871,
      "iency": 3872,
      "▁spring": 3873,
      "!!!": 3874,
      "▁science": 3875,
      "▁efforts": 3876,
      "ken": 3877,
      "EM": 3878,
      "oyal": 3879,
      "▁package": 3880,
      "box": 3881,
      "▁restaurant": 3882,
      "▁Power": 3883,
      "__": 3884,
      "▁wire": 3885,
      "▁developing": 3886,
      "azon": 3887,
      "▁links": 3888,
      "▁tree": 3889,
      "▁larger": 3890,
      "▁rich": 3891,
      "ows": 3892,
      "▁cry": 3893,
      "▁Life": 3894,
      "▁truck": 3895,
      "iar": 3896,
      "ago": 3897,
      "ef": 3898,
      "▁task": 3899,
      "▁church": 3900,
      "▁adding": 3901,
      "ipl": 3902,
      "▁sched": 3903,
      "▁Fam": 3904,
      "▁Sum": 3905,
      "istr": 3906,
      "▁forget": 3907,
      "▁classes": 3908,
      "▁Because": 3909,
      "▁certainly": 3910,
      "▁Ret": 3911,
      "▁residents": 3912,
      "▁plenty": 3913,
      "▁competition": 3914,
      "hips": 3915,
      "▁Govern": 3916,
      "▁born": 3917,
      "▁communities": 3918,
      "▁videos": 3919,
      "ctors": 3920,
      "▁named": 3921,
      "▁lack": 3922,
      "▁Sil": 3923,
      "▁finding": 3924,
      "▁notice": 3925,
      "▁middle": 3926,
      "▁affordable": 3927,
      "▁selected": 3928,
      "▁Adv": 3929,
      "▁turned": 3930,
      "▁shared": 3931,
      "ails": 3932,
      "▁Engine": 3933,
      "aith": 3934,
      "▁discover": 3935,
      "▁hundred": 3936,
      "▁communication": 3937,
      "down": 3938,
      "ented": 3939,
      "▁requires": 3940,
      "▁River": 3941,
      "cks": 3942,
      "▁defe": 3943,
      "▁maybe": 3944,
      "ota": 3945,
      "▁News": 3946,
      "acing": 3947,
      "aled": 3948,
      "▁cancer": 3949,
      "▁Director": 3950,
      "oma": 3951,
      "icken": 3952,
      "orrow": 3953,
      "ounds": 3954,
      "vin": 3955,
      "▁Cong": 3956,
      "encies": 3957,
      "▁liter": 3958,
      "▁guid": 3959,
      "▁AC": 3960,
      "top": 3961,
      "▁Fore": 3962,
      "▁academ": 3963,
      "▁bul": 3964,
      "▁comments": 3965,
      "▁institut": 3966,
      "▁bright": 3967,
      "iverse": 3968,
      "free": 3969,
      "gency": 3970,
      "▁states": 3971,
      "▁stone": 3972,
      "▁Light": 3973,
      "US": 3974,
      "▁Ob": 3975,
      "▁ter": 3976,
      "▁statement": 3977,
      "▁political": 3978,
      "▁produced": 3979,
      "▁fabric": 3980,
      "istered": 3981,
      "▁sort": 3982,
      "▁star": 3983,
      "asy": 3984,
      "mp": 3985,
      "▁director": 3986,
      "▁taste": 3987,
      "ads": 3988,
      "ij": 3989,
      "icon": 3990,
      "▁resist": 3991,
      "term": 3992,
      "▁Elect": 3993,
      "▁exciting": 3994,
      "arge": 3995,
      "bu": 3996,
      "rical": 3997,
      "inese": 3998,
      "▁visitors": 3999,
      "▁Mart": 4000,
      "▁plants": 4001,
      "▁scient": 4002,
      "▁studies": 4003,
      "icine": 4004,
      "▁prepared": 4005,
      "▁station": 4006,
      "ulate": 4007,
      "▁www": 4008,
      "▁earlier": 4009,
      "▁arrange": 4010,
      "▁buying": 4011,
      "▁allowed": 4012,
      "▁II": 4013,
      "▁loan": 4014,
      "▁Build": 4015,
      "itude": 4016,
      "▁AP": 4017,
      "sequ": 4018,
      "▁mo": 4019,
      "▁moved": 4020,
      "▁Institute": 4021,
      "▁Team": 4022,
      "▁famous": 4023,
      "▁prot": 4024,
      "▁slight": 4025,
      "▁medium": 4026,
      "ipes": 4027,
      "ss": 4028,
      "▁Church": 4029,
      "▁tickets": 4030,
      "▁multi": 4031,
      "▁excited": 4032,
      "▁greater": 4033,
      "▁mechan": 4034,
      "▁Bre": 4035,
      "▁innovative": 4036,
      "iber": 4037,
      "▁vot": 4038,
      "▁followed": 4039,
      "▁British": 4040,
      "▁saying": 4041,
      "▁organis": 4042,
      "▁Sun": 4043,
      "▁connection": 4044,
      "▁Special": 4045,
      "omb": 4046,
      "▁teaching": 4047,
      "▁expertise": 4048,
      "▁architect": 4049,
      "paper": 4050,
      "▁Rel": 4051,
      "▁shot": 4052,
      "▁testing": 4053,
      "iration": 4054,
      "imb": 4055,
      "▁shall": 4056,
      "▁keeping": 4057,
      "ivil": 4058,
      "▁fish": 4059,
      "inger": 4060,
      "▁General": 4061,
      "▁bur": 4062,
      "▁Online": 4063,
      "▁seven": 4064,
      "anta": 4065,
      "▁snow": 4066,
      "▁Florida": 4067,
      "press": 4068,
      "▁updated": 4069,
      "▁plastic": 4070,
      "itors": 4071,
      "▁facility": 4072,
      "▁breat": 4073,
      "▁Two": 4074,
      "▁presented": 4075,
      "▁compared": 4076,
      "ened": 4077,
      "▁interior": 4078,
      "▁names": 4079,
      "IM": 4080,
      "▁Music": 4081,
      "ona": 4082,
      "\",": 4083,
      "OW": 4084,
      "▁Camp": 4085,
      "▁eight": 4086,
      "▁William": 4087,
      "▁artists": 4088,
      "▁primary": 4089,
      "▁aren": 4090,
      "▁letter": 4091,
      "▁alone": 4092,
      "▁ice": 4093,
      "▁trou": 4094,
      "ado": 4095,
      "▁Back": 4096,
      "▁fee": 4097,
      "ady": 4098,
      "semb": 4099,
      "▁Pay": 4100,
      "▁quarter": 4101,
      "▁Est": 4102,
      "▁Mark": 4103,
      "▁waiting": 4104,
      "▁practices": 4105,
      "▁Big": 4106,
      "▁luck": 4107,
      "apers": 4108,
      "▁elements": 4109,
      "see": 4110,
      "emporary": 4111,
      "▁critical": 4112,
      "▁Rich": 4113,
      "▁incor": 4114,
      "▁Blue": 4115,
      "▁extensive": 4116,
      "▁income": 4117,
      "▁pump": 4118,
      "▁People": 4119,
      "▁@": 4120,
      "▁wife": 4121,
      "▁princ": 4122,
      "▁Hol": 4123,
      "▁operations": 4124,
      "▁installed": 4125,
      "raw": 4126,
      "▁Vol": 4127,
      "▁Fire": 4128,
      "▁strugg": 4129,
      "▁ingredients": 4130,
      "▁Mal": 4131,
      "▁balance": 4132,
      "▁hom": 4133,
      "▁rules": 4134,
      "▁egg": 4135,
      "▁courses": 4136,
      "▁fold": 4137,
      "▁hus": 4138,
      "▁placed": 4139,
      "▁pair": 4140,
      "▁leader": 4141,
      "ula": 4142,
      "▁upgra": 4143,
      "▁sustain": 4144,
      "▁fantastic": 4145,
      "▁trail": 4146,
      "▁Under": 4147,
      "▁audience": 4148,
      "▁Mot": 4149,
      "rom": 4150,
      "enses": 4151,
      "▁calc": 4152,
      "▁forms": 4153,
      "look": 4154,
      "ifts": 4155,
      "▁USA": 4156,
      "▁initi": 4157,
      "▁biggest": 4158,
      "”,": 4159,
      "▁menu": 4160,
      "▁matt": 4161,
      "ampions": 4162,
      "▁Beach": 4163,
      "▁sup": 4164,
      "▁values": 4165,
      "▁category": 4166,
      "▁father": 4167,
      "▁visual": 4168,
      "▁Jesus": 4169,
      "▁windows": 4170,
      "▁sector": 4171,
      "▁seeing": 4172,
      "ervation": 4173,
      "ym": 4174,
      "▁surv": 4175,
      "ga": 4176,
      "▁advance": 4177,
      "▁capacity": 4178,
      "▁funds": 4179,
      "works": 4180,
      "▁haven": 4181,
      "▁voice": 4182,
      "cut": 4183,
      "▁Court": 4184,
      "rehensive": 4185,
      "▁vision": 4186,
      "log": 4187,
      "▁parking": 4188,
      "▁cloud": 4189,
      "end": 4190,
      "▁Africa": 4191,
      "▁Mill": 4192,
      "▁pros": 4193,
      "▁Mary": 4194,
      "rete": 4195,
      "▁demonstr": 4196,
      "▁James": 4197,
      "▁Dem": 4198,
      "▁combination": 4199,
      "active": 4200,
      "ishes": 4201,
      "▁Arch": 4202,
      "▁determine": 4203,
      "▁Education": 4204,
      "▁format": 4205,
      "▁AM": 4206,
      "erry": 4207,
      "▁awesome": 4208,
      "▁shel": 4209,
      "▁?": 4210,
      "▁server": 4211,
      "sm": 4212,
      "▁Community": 4213,
      "▁serving": 4214,
      "▁shipping": 4215,
      "▁recipe": 4216,
      "▁Ev": 4217,
      "▁doub": 4218,
      "▁virt": 4219,
      "overy": 4220,
      "asure": 4221,
      "ero": 4222,
      "atively": 4223,
      "▁Who": 4224,
      "▁Like": 4225,
      "▁locations": 4226,
      "▁numerous": 4227,
      "uled": 4228,
      "▁lovely": 4229,
      "▁Foundation": 4230,
      "mal": 4231,
      "▁mis": 4232,
      "ocolate": 4233,
      "▁suitable": 4234,
      "▁Public": 4235,
      "oop": 4236,
      "▁theme": 4237,
      "▁street": 4238,
      "▁Next": 4239,
      "▁operating": 4240,
      "▁selling": 4241,
      "▁encourage": 4242,
      "hone": 4243,
      "▁rob": 4244,
      "▁units": 4245,
      "▁brings": 4246,
      "▁vehicles": 4247,
      "▁score": 4248,
      "▁threat": 4249,
      "▁Mo": 4250,
      "▁Start": 4251,
      "rote": 4252,
      "▁register": 4253,
      "▁laun": 4254,
      "ette": 4255,
      "dd": 4256,
      "▁thousands": 4257,
      "▁Cap": 4258,
      "uce": 4259,
      "▁Star": 4260,
      "▁Char": 4261,
      "▁deals": 4262,
      "▁transl": 4263,
      "▁Pet": 4264,
      "▁rank": 4265,
      "▁panel": 4266,
      "▁harm": 4267,
      "▁Glo": 4268,
      "▁dinner": 4269,
      "SS": 4270,
      "▁valu": 4271,
      "▁Chinese": 4272,
      "▁Island": 4273,
      "▁Its": 4274,
      "umin": 4275,
      "▁Det": 4276,
      "▁counter": 4277,
      "▁reliable": 4278,
      "▁temperature": 4279,
      "▁sets": 4280,
      "▁although": 4281,
      "▁Set": 4282,
      "pping": 4283,
      "▁Another": 4284,
      "itiz": 4285,
      "▁delicious": 4286,
      "▁runs": 4287,
      "▁minute": 4288,
      "▁surg": 4289,
      "▁status": 4290,
      "▁corporate": 4291,
      "leg": 4292,
      "▁investig": 4293,
      "▁Enter": 4294,
      "▁central": 4295,
      "▁Michael": 4296,
      "▁centre": 4297,
      "▁Tem": 4298,
      "▁datab": 4299,
      "▁flat": 4300,
      "▁Angel": 4301,
      "ka": 4302,
      "VE": 4303,
      "▁bill": 4304,
      "▁gain": 4305,
      "▁establish": 4306,
      "▁stores": 4307,
      "▁veget": 4308,
      "▁desk": 4309,
      "▁rain": 4310,
      "▁maximum": 4311,
      "▁cart": 4312,
      "td": 4313,
      "▁Sl": 4314,
      "reed": 4315,
      "unately": 4316,
      "▁changing": 4317,
      "▁knew": 4318,
      "▁adop": 4319,
      "▁PR": 4320,
      "bour": 4321,
      "Ch": 4322,
      "yn": 4323,
      "▁whose": 4324,
      "▁movement": 4325,
      "▁Tom": 4326,
      "rees": 4327,
      "ption": 4328,
      ").<": 4329,
      "iment": 4330,
      "▁wat": 4331,
      "pective": 4332,
      "▁separate": 4333,
      "▁Word": 4334,
      "▁doors": 4335,
      "▁beg": 4336,
      "▁Development": 4337,
      "▁remind": 4338,
      "▁tow": 4339,
      "▁sav": 4340,
      "▁Real": 4341,
      "abilities": 4342,
      "▁relevant": 4343,
      "▁opened": 4344,
      "apter": 4345,
      "▁mail": 4346,
      "body": 4347,
      "▁Mil": 4348,
      "ception": 4349,
      "▁automatically": 4350,
      "▁laws": 4351,
      "▁chair": 4352,
      "azine": 4353,
      "▁Through": 4354,
      "▁corner": 4355,
      "▁manager": 4356,
      "▁Wel": 4357,
      "DA": 4358,
      "▁waste": 4359,
      "▁dete": 4360,
      "▁showing": 4361,
      "▁detailed": 4362,
      "ying": 4363,
      "▁micro": 4364,
      "▁Rob": 4365,
      "▁optim": 4366,
      "▁coverage": 4367,
      "▁den": 4368,
      "craft": 4369,
      "▁fem": 4370,
      "▁ton": 4371,
      "▁Color": 4372,
      "dr": 4373,
      "▁husband": 4374,
      "▁reflect": 4375,
      "▁flowers": 4376,
      "▁parties": 4377,
      "▁Trump": 4378,
      "friend": 4379,
      "▁talking": 4380,
      "▁looked": 4381,
      "▁core": 4382,
      "▁scen": 4383,
      "▁Exper": 4384,
      "▁Where": 4385,
      "MS": 4386,
      "IL": 4387,
      "www": 4388,
      "itar": 4389,
      "▁Keep": 4390,
      "▁brain": 4391,
      "▁memory": 4392,
      "▁dang": 4393,
      "▁characters": 4394,
      "▁assistance": 4395,
      "▁Show": 4396,
      "▁HD": 4397,
      "ushing": 4398,
      "▁documents": 4399,
      "▁shower": 4400,
      "▁square": 4401,
      "▁actual": 4402,
      "▁swim": 4403,
      "vision": 4404,
      "ography": 4405,
      "▁sea": 4406,
      "▁processes": 4407,
      "ech": 4408,
      "▁favour": 4409,
      "▁sport": 4410,
      "▁focused": 4411,
      "▁becoming": 4412,
      "▁older": 4413,
      "▁injury": 4414,
      "apos": 4415,
      "▁sugar": 4416,
      "▁Ty": 4417,
      "▁Central": 4418,
      "▁helpful": 4419,
      "aming": 4420,
      "▁origin": 4421,
      "icians": 4422,
      "▁pray": 4423,
      "▁limit": 4424,
      "▁brands": 4425,
      "▁appointment": 4426,
      "▁Ben": 4427,
      "▁Food": 4428,
      "▁Centre": 4429,
      "▁opin": 4430,
      "osure": 4431,
      "▁Sa": 4432,
      "▁workers": 4433,
      "▁info": 4434,
      "▁Valley": 4435,
      "▁Both": 4436,
      "▁kept": 4437,
      "▁independent": 4438,
      "▁van": 4439,
      "▁provider": 4440,
      "ooper": 4441,
      "▁Mad": 4442,
      "▁concerns": 4443,
      "▁Amazon": 4444,
      "osing": 4445,
      "▁visiting": 4446,
      "estic": 4447,
      "▁accur": 4448,
      "▁industrial": 4449,
      "▁Microsoft": 4450,
      "ograp": 4451,
      "▁dro": 4452,
      "gen": 4453,
      "▁president": 4454,
      "▁enhance": 4455,
      "▁apart": 4456,
      "▁gone": 4457,
      "▁calls": 4458,
      "▁committed": 4459,
      "▁approximately": 4460,
      "▁diagn": 4461,
      "illa": 4462,
      "▁distance": 4463,
      "▁Time": 4464,
      "▁pal": 4465,
      "▁Grand": 4466,
      "▁battery": 4467,
      "▁enjoyed": 4468,
      "ribute": 4469,
      "▁fol": 4470,
      "▁England": 4471,
      "outhern": 4472,
      "▁dial": 4473,
      "▁senior": 4474,
      "▁practical": 4475,
      "ellig": 4476,
      "▁passed": 4477,
      "▁century": 4478,
      "▁catch": 4479,
      "▁assign": 4480,
      "▁trial": 4481,
      "mail": 4482,
      "yer": 4483,
      "▁suff": 4484,
      "rd": 4485,
      "▁comprehensive": 4486,
      "▁smaller": 4487,
      "▁websites": 4488,
      "▁closed": 4489,
      "▁exercise": 4490,
      "icks": 4491,
      "▁controll": 4492,
      "▁continues": 4493,
      "▁south": 4494,
      "PA": 4495,
      "ament": 4496,
      "IG": 4497,
      "▁posts": 4498,
      "uration": 4499,
      "▁busy": 4500,
      "UR": 4501,
      "▁worry": 4502,
      "▁poor": 4503,
      "▁brows": 4504,
      "fol": 4505,
      "▁Lou": 4506,
      "▁district": 4507,
      "▁markets": 4508,
      "▁Fort": 4509,
      "▁Science": 4510,
      "▁records": 4511,
      "▁Fil": 4512,
      "▁decide": 4513,
      "▁ride": 4514,
      "▁Android": 4515,
      "rics": 4516,
      "▁diet": 4517,
      "▁Bet": 4518,
      "▁relationships": 4519,
      "LC": 4520,
      "▁competitive": 4521,
      "TS": 4522,
      "▁prepare": 4523,
      "▁couldn": 4524,
      "▁learned": 4525,
      "▁department": 4526,
      "▁leadership": 4527,
      "▁allowing": 4528,
      "do": 4529,
      "▁bowl": 4530,
      "▁recommended": 4531,
      "▁generally": 4532,
      "▁Their": 4533,
      "▁bird": 4534,
      "▁fear": 4535,
      "▁Que": 4536,
      "fin": 4537,
      "▁transform": 4538,
      "▁spect": 4539,
      "▁starts": 4540,
      "▁decisions": 4541,
      "▁operation": 4542,
      "actions": 4543,
      "▁population": 4544,
      "▁connected": 4545,
      "aser": 4546,
      "arrant": 4547,
      "well": 4548,
      "▁saving": 4549,
      "▁Chic": 4550,
      "▁himself": 4551,
      "▁inspired": 4552,
      "▁terr": 4553,
      "▁expensive": 4554,
      "CA": 4555,
      "▁Miss": 4556,
      "▁properly": 4557,
      "iers": 4558,
      "▁leaves": 4559,
      "▁http": 4560,
      "▁announce": 4561,
      "▁rare": 4562,
      "▁boo": 4563,
      "▁sem": 4564,
      "▁technologies": 4565,
      "▁entertain": 4566,
      "▁guarantee": 4567,
      "▁Inte": 4568,
      "▁spons": 4569,
      "▁Twitter": 4570,
      "▁TO": 4571,
      "▁factors": 4572,
      "▁rat": 4573,
      "▁bought": 4574,
      "uty": 4575,
      "▁minimum": 4576,
      "▁switch": 4577,
      "▁combined": 4578,
      "▁cities": 4579,
      "▁agency": 4580,
      "▁ven": 4581,
      "▁Note": 4582,
      "▁figure": 4583,
      "iest": 4584,
      "▁hospital": 4585,
      "oration": 4586,
      "▁walking": 4587,
      "going": 4588,
      "▁joined": 4589,
      ".)": 4590,
      "▁District": 4591,
      "▁estim": 4592,
      "▁List": 4593,
      "▁force": 4594,
      "▁trees": 4595,
      "een": 4596,
      "bed": 4597,
      "▁joint": 4598,
      "▁plug": 4599,
      "ferences": 4600,
      "DF": 4601,
      "▁lighting": 4602,
      "▁Hum": 4603,
      "▁daughter": 4604,
      "▁fees": 4605,
      "▁attor": 4606,
      "hi": 4607,
      "amm": 4608,
      "▁strategies": 4609,
      "▁sounds": 4610,
      "▁Project": 4611,
      "reek": 4612,
      "life": 4613,
      "▁filled": 4614,
      "ructure": 4615,
      "night": 4616,
      "▁animals": 4617,
      "▁direction": 4618,
      "▁therefore": 4619,
      "▁jump": 4620,
      "eless": 4621,
      "▁Step": 4622,
      "▁Hill": 4623,
      "▁economy": 4624,
      "▁sources": 4625,
      "isl": 4626,
      "▁songs": 4627,
      "▁girls": 4628,
      "▁View": 4629,
      "▁updates": 4630,
      "▁flu": 4631,
      "▁alternative": 4632,
      "▁teachers": 4633,
      "ivered": 4634,
      "▁tend": 4635,
      "▁premium": 4636,
      "▁Stand": 4637,
      "uries": 4638,
      "▁Hist": 4639,
      "▁lights": 4640,
      "▁dram": 4641,
      "▁novel": 4642,
      "▁disapp": 4643,
      "hab": 4644,
      "▁brother": 4645,
      "▁config": 4646,
      "▁fuel": 4647,
      "▁evidence": 4648,
      "▁doctor": 4649,
      "▁Sol": 4650,
      "▁accident": 4651,
      "▁happens": 4652,
      "gage": 4653,
      "▁applied": 4654,
      "▁neighbor": 4655,
      "▁Mel": 4656,
      "alls": 4657,
      "▁Cert": 4658,
      "▁brown": 4659,
      "▁Vir": 4660,
      "▁managed": 4661,
      "gn": 4662,
      "issions": 4663,
      "▁convenient": 4664,
      "▁Follow": 4665,
      "▁Alex": 4666,
      "▁tast": 4667,
      "▁Before": 4668,
      "▁winning": 4669,
      "▁supplies": 4670,
      "▁Academ": 4671,
      "▁lunch": 4672,
      "▁continued": 4673,
      "▁Pan": 4674,
      "▁faith": 4675,
      "antic": 4676,
      "▁Family": 4677,
      "▁Master": 4678,
      "RA": 4679,
      "▁edge": 4680,
      "eed": 4681,
      "▁spending": 4682,
      "▁restaurants": 4683,
      "▁Prov": 4684,
      "▁covers": 4685,
      "▁emp": 4686,
      "▁Mexic": 4687,
      "win": 4688,
      "▁reality": 4689,
      "▁ship": 4690,
      "▁wrote": 4691,
      "▁Card": 4692,
      "BA": 4693,
      "▁military": 4694,
      "iance": 4695,
      "▁Head": 4696,
      "▁environmental": 4697,
      "▁promote": 4698,
      "▁processing": 4699,
      "▁compl": 4700,
      "▁profile": 4701,
      "▁emergency": 4702,
      "ternal": 4703,
      "water": 4704,
      "▁becomes": 4705,
      "▁anti": 4706,
      "▁Town": 4707,
      "▁survey": 4708,
      "▁leaving": 4709,
      "▁Lim": 4710,
      "▁Tor": 4711,
      "liance": 4712,
      "ams": 4713,
      "▁RE": 4714,
      "▁valid": 4715,
      "▁Att": 4716,
      "prise": 4717,
      "▁components": 4718,
      "▁Dig": 4719,
      "▁Christian": 4720,
      "su": 4721,
      "▁funding": 4722,
      "▁grant": 4723,
      "▁Thom": 4724,
      "▁anywhere": 4725,
      "▁Matt": 4726,
      "▁spl": 4727,
      "▁fruit": 4728,
      "▁sizes": 4729,
      "▁mist": 4730,
      "▁Commission": 4731,
      "▁Data": 4732,
      "osen": 4733,
      "▁Information": 4734,
      "▁Social": 4735,
      "▁choices": 4736,
      "iences": 4737,
      "▁tea": 4738,
      "▁teacher": 4739,
      "▁youth": 4740,
      "▁Bath": 4741,
      "▁knows": 4742,
      "▁Award": 4743,
      "▁seconds": 4744,
      "▁Ltd": 4745,
      "▁perhaps": 4746,
      "▁dance": 4747,
      "▁Rad": 4748,
      "▁nav": 4749,
      "CC": 4750,
      "▁Technology": 4751,
      "▁raised": 4752,
      "▁Long": 4753,
      "outs": 4754,
      "iability": 4755,
      "▁absolutely": 4756,
      "iated": 4757,
      "aste": 4758,
      "▁Di": 4759,
      "▁launched": 4760,
      "cean": 4761,
      "▁seat": 4762,
      "ruit": 4763,
      "amin": 4764,
      "▁resolution": 4765,
      "▁federal": 4766,
      "▁north": 4767,
      "▁tail": 4768,
      "▁quot": 4769,
      "▁upload": 4770,
      "▁remains": 4771,
      "iled": 4772,
      "omet": 4773,
      "▁Nor": 4774,
      "▁scene": 4775,
      "▁thick": 4776,
      "▁Tour": 4777,
      "▁CD": 4778,
      "▁guys": 4779,
      "ae": 4780,
      "▁iPhone": 4781,
      "▁Plus": 4782,
      "▁rub": 4783,
      "orthern": 4784,
      "▁compos": 4785,
      "▁dim": 4786,
      "▁butter": 4787,
      "▁reput": 4788,
      "gal": 4789,
      "▁caused": 4790,
      "▁Hotel": 4791,
      "▁Lo": 4792,
      "ownt": 4793,
      "▁scale": 4794,
      "▁OF": 4795,
      "eria": 4796,
      "ups": 4797,
      "▁feedback": 4798,
      "pan": 4799,
      "▁Const": 4800,
      "▁delivered": 4801,
      "inding": 4802,
      "▁IP": 4803,
      "▁society": 4804,
      "▁guest": 4805,
      "ya": 4806,
      "▁manufacturing": 4807,
      "▁performed": 4808,
      "▁Mach": 4809,
      "cap": 4810,
      "▁Lead": 4811,
      "umber": 4812,
      "mes": 4813,
      "▁NY": 4814,
      "▁listen": 4815,
      "ander": 4816,
      "text": 4817,
      "▁exchange": 4818,
      "▁confidence": 4819,
      "chest": 4820,
      "▁adults": 4821,
      "point": 4822,
      "estyle": 4823,
      "▁auto": 4824,
      "▁decl": 4825,
      "IA": 4826,
      "▁dynam": 4827,
      "onus": 4828,
      "▁neck": 4829,
      "isco": 4830,
      "zer": 4831,
      "▁Tur": 4832,
      "▁mort": 4833,
      "▁Learn": 4834,
      "▁flight": 4835,
      "▁educational": 4836,
      "atures": 4837,
      "▁sch": 4838,
      "▁drivers": 4839,
      "▁breakfast": 4840,
      "▁audio": 4841,
      "▁ju": 4842,
      "▁Only": 4843,
      "reens": 4844,
      "▁Using": 4845,
      "▁surrounding": 4846,
      "▁Mer": 4847,
      "nel": 4848,
      "▁epis": 4849,
      "▁crusher": 4850,
      "▁topic": 4851,
      "▁leather": 4852,
      "▁Carol": 4853,
      "▁shap": 4854,
      "▁eating": 4855,
      "▁whatever": 4856,
      "▁Does": 4857,
      "orough": 4858,
      "▁happened": 4859,
      "▁generation": 4860,
      "▁pm": 4861,
      "▁presence": 4862,
      "▁rap": 4863,
      "inct": 4864,
      "▁birthday": 4865,
      "inations": 4866,
      "▁crow": 4867,
      "▁watching": 4868,
      "opped": 4869,
      "▁meant": 4870,
      "ivate": 4871,
      "▁Commit": 4872,
      "▁salt": 4873,
      "▁aspects": 4874,
      "▁commitment": 4875,
      "▁coast": 4876,
      "▁psych": 4877,
      "▁importance": 4878,
      "ini": 4879,
      "▁refer": 4880,
      "▁Clean": 4881,
      "▁AND": 4882,
      "▁illustr": 4883,
      "▁participants": 4884,
      "▁labor": 4885,
      "▁CA": 4886,
      "▁database": 4887,
      "▁depending": 4888,
      "▁Museum": 4889,
      "▁tun": 4890,
      "icies": 4891,
      "▁slightly": 4892,
      "▁sym": 4893,
      "unction": 4894,
      "▁Arts": 4895,
      "▁Republic": 4896,
      "eries": 4897,
      "la": 4898,
      "▁Full": 4899,
      "▁library": 4900,
      "▁gallery": 4901,
      "▁Society": 4902,
      "▁replacement": 4903,
      "▁meal": 4904,
      "▁ID": 4905,
      "appy": 4906,
      "hent": 4907,
      "▁guess": 4908,
      "▁Enjoy": 4909,
      "▁lose": 4910,
      "ifying": 4911,
      "▁honest": 4912,
      "cohol": 4913,
      "ums": 4914,
      "▁Medical": 4915,
      "▁monthly": 4916,
      "▁ring": 4917,
      "▁PM": 4918,
      "▁academic": 4919,
      "▁internal": 4920,
      "▁island": 4921,
      "▁previously": 4922,
      "▁eleg": 4923,
      "▁chemical": 4924,
      "igious": 4925,
      "▁Cy": 4926,
      "ternoon": 4927,
      "▁registered": 4928,
      "▁har": 4929,
      "▁Organ": 4930,
      "CH": 4931,
      "▁secret": 4932,
      "▁luxury": 4933,
      "▁Bed": 4934,
      "▁Review": 4935,
      "▁ban": 4936,
      "▁missing": 4937,
      "▁Hand": 4938,
      "▁Div": 4939,
      "▁elim": 4940,
      "▁earth": 4941,
      "▁Addition": 4942,
      "▁journal": 4943,
      "▁painting": 4944,
      "▁Mont": 4945,
      "rab": 4946,
      "rain": 4947,
      "itness": 4948,
      "▁manual": 4949,
      "▁beat": 4950,
      "▁impl": 4951,
      "▁football": 4952,
      "▁scr": 4953,
      "▁cutting": 4954,
      "ano": 4955,
      "▁princip": 4956,
      "pected": 4957,
      "▁eth": 4958,
      "▁gather": 4959,
      "▁trained": 4960,
      "▁foreign": 4961,
      "ixture": 4962,
      "▁jew": 4963,
      "▁thoughts": 4964,
      "▁cris": 4965,
      "oga": 4966,
      "▁radio": 4967,
      "▁Old": 4968,
      "▁residential": 4969,
      "osh": 4970,
      "▁AS": 4971,
      "▁teeth": 4972,
      "▁supported": 4973,
      "▁chocolate": 4974,
      "▁NOT": 4975,
      "▁agreement": 4976,
      "▁efficiency": 4977,
      "▁ang": 4978,
      "▁coup": 4979,
      "▁boat": 4980,
      "lets": 4981,
      "▁Press": 4982,
      "▁reference": 4983,
      "▁engineering": 4984,
      "▁repe": 4985,
      "▁Gal": 4986,
      "ola": 4987,
      "alend": 4988,
      "BS": 4989,
      "▁providers": 4990,
      "ray": 4991,
      "▁valuable": 4992,
      "ocr": 4993,
      "vention": 4994,
      "▁resource": 4995,
      "lor": 4996,
      "▁Pack": 4997,
      "▁cooking": 4998,
      "▁hire": 4999,
      "▁Spring": 5000,
      "▁Jour": 5001,
      "▁accompl": 5002,
      "▁chart": 5003,
      "▁Sand": 5004,
      "▁leads": 5005,
      "▁rental": 5006,
      "▁sessions": 5007,
      "olars": 5008,
      "▁garage": 5009,
      "▁notes": 5010,
      "▁claims": 5011,
      "▁enable": 5012,
      "▁buildings": 5013,
      "▁Ext": 5014,
      "▁Ce": 5015,
      "▁Qual": 5016,
      "▁Welcome": 5017,
      "▁dish": 5018,
      "▁Aud": 5019,
      "▁diam": 5020,
      "▁coord": 5021,
      "▁trading": 5022,
      "▁Room": 5023,
      "▁typically": 5024,
      "▁studio": 5025,
      "▁Chicago": 5026,
      "alian": 5027,
      "▁putting": 5028,
      "▁Beaut": 5029,
      "▁inspiration": 5030,
      "men": 5031,
      "burg": 5032,
      "▁signed": 5033,
      "▁NE": 5034,
      "itate": 5035,
      "▁mental": 5036,
      "cher": 5037,
      "▁upcoming": 5038,
      "▁Scott": 5039,
      "▁Mass": 5040,
      "▁Invest": 5041,
      "rael": 5042,
      "▁stunning": 5043,
      "▁wal": 5044,
      "▁Equ": 5045,
      "▁highlight": 5046,
      "▁contemporary": 5047,
      "▁rid": 5048,
      "never": 5049,
      "▁Sign": 5050,
      "▁featuring": 5051,
      "▁died": 5052,
      "▁UN": 5053,
      "▁Place": 5054,
      "▁Offic": 5055,
      "cles": 5056,
      "atre": 5057,
      "▁calling": 5058,
      "intage": 5059,
      "▁volume": 5060,
      "known": 5061,
      "▁exclusive": 5062,
      "▁Dou": 5063,
      "▁toward": 5064,
      "esterday": 5065,
      "▁Security": 5066,
      "▁approved": 5067,
      "▁indic": 5068,
      "▁Women": 5069,
      "▁shut": 5070,
      "▁kid": 5071,
      "▁France": 5072,
      "▁Government": 5073,
      "▁faster": 5074,
      "ita": 5075,
      "▁articles": 5076,
      "▁appearance": 5077,
      "▁cultural": 5078,
      "▁worldwide": 5079,
      "onds": 5080,
      "nect": 5081,
      "▁profit": 5082,
      "inating": 5083,
      "▁Looking": 5084,
      "vere": 5085,
      "▁appeal": 5086,
      "oosing": 5087,
      "atin": 5088,
      "bl": 5089,
      "OD": 5090,
      "▁specifically": 5091,
      "▁Vict": 5092,
      "rome": 5093,
      "OP": 5094,
      "▁registration": 5095,
      "▁Sen": 5096,
      "mosp": 5097,
      "mbol": 5098,
      "▁ourselves": 5099,
      "▁perfectly": 5100,
      "▁bringing": 5101,
      "▁wheel": 5102,
      "▁citiz": 5103,
      "▁dura": 5104,
      "▁bike": 5105,
      "▁cheese": 5106,
      "▁raise": 5107,
      "▁mentioned": 5108,
      "▁YOU": 5109,
      "▁obvious": 5110,
      "▁spaces": 5111,
      "▁chicken": 5112,
      "▁occasion": 5113,
      "▁ir": 5114,
      "▁advertising": 5115,
      "ainless": 5116,
      "▁solar": 5117,
      "▁featured": 5118,
      "ulous": 5119,
      "orgeous": 5120,
      "amic": 5121,
      "▁willing": 5122,
      "fortunately": 5123,
      "▁policies": 5124,
      "▁species": 5125,
      "col": 5126,
      "▁Cat": 5127,
      "othes": 5128,
      "▁warrant": 5129,
      "▁disp": 5130,
      "▁Soft": 5131,
      "▁concent": 5132,
      "ensions": 5133,
      "▁consumers": 5134,
      "osis": 5135,
      "▁Atl": 5136,
      "▁pin": 5137,
      "▁cells": 5138,
      "▁deck": 5139,
      "▁supporting": 5140,
      "▁grade": 5141,
      "▁afternoon": 5142,
      "▁regularly": 5143,
      "▁Watch": 5144,
      "rag": 5145,
      "▁styles": 5146,
      "IR": 5147,
      "▁consid": 5148,
      "▁League": 5149,
      "▁discussion": 5150,
      "▁error": 5151,
      "▁fields": 5152,
      "how": 5153,
      "▁surf": 5154,
      "▁bask": 5155,
      "▁stret": 5156,
      "▁settings": 5157,
      "▁familiar": 5158,
      "▁housing": 5159,
      "▁tables": 5160,
      "▁Global": 5161,
      "▁Media": 5162,
      "▁purchased": 5163,
      "▁silver": 5164,
      "▁apps": 5165,
      "▁surgery": 5166,
      "▁seeking": 5167,
      "▁dogs": 5168,
      "▁appe": 5169,
      "▁Ber": 5170,
      "▁Brown": 5171,
      "▁Disc": 5172,
      "isher": 5173,
      "):": 5174,
      "prene": 5175,
      "▁Cre": 5176,
      "eline": 5177,
      "▁ticket": 5178,
      "▁amb": 5179,
      "▁accounts": 5180,
      "ician": 5181,
      "mar": 5182,
      "IF": 5183,
      "idden": 5184,
      "▁depos": 5185,
      "▁participate": 5186,
      "▁Rest": 5187,
      "▁icon": 5188,
      "▁majority": 5189,
      "▁Lord": 5190,
      "▁Network": 5191,
      "▁Manager": 5192,
      "▁wouldn": 5193,
      "ker": 5194,
      "aks": 5195,
      "ius": 5196,
      "▁Bill": 5197,
      "▁climate": 5198,
      "ifications": 5199,
      "▁reached": 5200,
      "▁conduct": 5201,
      "▁compar": 5202,
      "▁Kitchen": 5203,
      "▁iron": 5204,
      "▁poly": 5205,
      "▁coach": 5206,
      "▁Hope": 5207,
      "Wh": 5208,
      "▁teach": 5209,
      "azz": 5210,
      "▁incredible": 5211,
      "▁obtain": 5212,
      "▁Committee": 5213,
      "iner": 5214,
      "▁vary": 5215,
      "▁quiet": 5216,
      "reprene": 5217,
      "▁showed": 5218,
      "▁thus": 5219,
      "▁Buy": 5220,
      "▁Festival": 5221,
      "▁responsibility": 5222,
      "▁delight": 5223,
      "▁Ideas": 5224,
      "edy": 5225,
      "▁Series": 5226,
      "ki": 5227,
      "hus": 5228,
      "alog": 5229,
      "verse": 5230,
      "▁measures": 5231,
      "van": 5232,
      "▁truth": 5233,
      "▁houses": 5234,
      "▁presentation": 5235,
      "▁Squ": 5236,
      "▁sauce": 5237,
      "add": 5238,
      "OC": 5239,
      "▁quant": 5240,
      "▁functions": 5241,
      "▁remote": 5242,
      "rim": 5243,
      "▁Franc": 5244,
      "UT": 5245,
      "▁anc": 5246,
      "▁Fund": 5247,
      "▁gun": 5248,
      "SA": 5249,
      "▁shoes": 5250,
      "etime": 5251,
      "▁throw": 5252,
      "▁chain": 5253,
      "This": 5254,
      "▁Canad": 5255,
      "vell": 5256,
      "▁ath": 5257,
      "▁nurs": 5258,
      "▁hundreds": 5259,
      "▁otherwise": 5260,
      "▁boost": 5261,
      "▁joy": 5262,
      "▁appears": 5263,
      "▁Person": 5264,
      "kin": 5265,
      "list": 5266,
      "▁CEO": 5267,
      "nergy": 5268,
      "lying": 5269,
      "▁goods": 5270,
      "ait": 5271,
      "▁instructions": 5272,
      "▁pock": 5273,
      "▁accessories": 5274,
      "▁Los": 5275,
      "▁licens": 5276,
      "▁advis": 5277,
      "▁brief": 5278,
      "▁scheduled": 5279,
      "▁employee": 5280,
      "▁researc": 5281,
      "▁mostly": 5282,
      "ricult": 5283,
      "▁Children": 5284,
      "▁Pub": 5285,
      "▁Virgin": 5286,
      "▁Germany": 5287,
      "▁golf": 5288,
      "▁neighborhood": 5289,
      "ario": 5290,
      "▁appreciate": 5291,
      "▁accurate": 5292,
      "▁totally": 5293,
      "▁Main": 5294,
      "▁kick": 5295,
      "▁introduced": 5296,
      "▁sides": 5297,
      "▁greatest": 5298,
      "no": 5299,
      "flow": 5300,
      "▁Smith": 5301,
      "▁Tim": 5302,
      "▁trend": 5303,
      "▁Israel": 5304,
      "▁Access": 5305,
      "▁certified": 5306,
      "▁improved": 5307,
      "▁signs": 5308,
      "▁animal": 5309,
      "aration": 5310,
      "▁topics": 5311,
      "▁Den": 5312,
      "▁therapy": 5313,
      "berg": 5314,
      "▁element": 5315,
      "▁chosen": 5316,
      "▁tut": 5317,
      "▁Small": 5318,
      "urban": 5319,
      "▁Very": 5320,
      "▁Bur": 5321,
      "▁Support": 5322,
      "▁entertainment": 5323,
      "▁atmosp": 5324,
      "▁Australian": 5325,
      "▁walls": 5326,
      "▁campus": 5327,
      "▁qualified": 5328,
      "▁actions": 5329,
      "▁fixed": 5330,
      "▁Guys": 5331,
      "▁ment": 5332,
      "gment": 5333,
      "ression": 5334,
      "▁ON": 5335,
      "▁restrict": 5336,
      "REE": 5337,
      "▁Students": 5338,
      "▁hearing": 5339,
      "▁Table": 5340,
      "▁glad": 5341,
      "▁Bas": 5342,
      "▁Union": 5343,
      "▁Jew": 5344,
      "igan": 5345,
      "▁liqu": 5346,
      "▁cake": 5347,
      "▁mini": 5348,
      "▁sheet": 5349,
      "▁Tre": 5350,
      "iors": 5351,
      "▁infrast": 5352,
      "cious": 5353,
      "▁manner": 5354,
      "▁George": 5355,
      "▁simpl": 5356,
      "▁milk": 5357,
      "▁Gar": 5358,
      "inder": 5359,
      "rition": 5360,
      "▁predict": 5361,
      "▁consumer": 5362,
      "▁Oper": 5363,
      "▁About": 5364,
      "▁Ham": 5365,
      "▁electronic": 5366,
      "▁crew": 5367,
      "cont": 5368,
      "▁arm": 5369,
      "▁Win": 5370,
      "▁owned": 5371,
      "road": 5372,
      "▁recovery": 5373,
      "▁Cup": 5374,
      "▁rot": 5375,
      "▁cute": 5376,
      "▁dental": 5377,
      "▁ben": 5378,
      "riage": 5379,
      "hetic": 5380,
      "ersey": 5381,
      "▁orders": 5382,
      "MA": 5383,
      "▁effectively": 5384,
      "▁Test": 5385,
      "▁celebrate": 5386,
      "▁Hi": 5387,
      "▁template": 5388,
      "▁Lab": 5389,
      "▁dating": 5390,
      "▁German": 5391,
      "▁confirm": 5392,
      "▁Shop": 5393,
      "▁vote": 5394,
      "▁du": 5395,
      "ificate": 5396,
      "▁removed": 5397,
      "han": 5398,
      "▁hardware": 5399,
      "▁uns": 5400,
      "▁organic": 5401,
      "▁successfully": 5402,
      "▁Ill": 5403,
      "▁civil": 5404,
      "▁gear": 5405,
      "▁hosting": 5406,
      "while": 5407,
      "▁ended": 5408,
      "▁charges": 5409,
      "▁fle": 5410,
      "▁mode": 5411,
      "▁depart": 5412,
      "▁favourite": 5413,
      "▁fellow": 5414,
      "▁behavior": 5415,
      "▁tight": 5416,
      "▁MP": 5417,
      "▁equipped": 5418,
      "▁symbol": 5419,
      "▁Prote": 5420,
      "▁designer": 5421,
      "iat": 5422,
      "NA": 5423,
      "▁supports": 5424,
      "orable": 5425,
      "▁monit": 5426,
      "otton": 5427,
      "▁Cost": 5428,
      "▁Cond": 5429,
      "fection": 5430,
      "▁candidates": 5431,
      "▁feels": 5432,
      "weight": 5433,
      "▁apartment": 5434,
      "▁Those": 5435,
      "▁plate": 5436,
      "▁pu": 5437,
      "▁asking": 5438,
      "▁jack": 5439,
      "▁belie": 5440,
      "bre": 5441,
      "▁returned": 5442,
      "erts": 5443,
      "▁partnership": 5444,
      "▁kit": 5445,
      "eper": 5446,
      "▁everyday": 5447,
      "arp": 5448,
      "▁license": 5449,
      "▁programme": 5450,
      "▁meat": 5451,
      "poses": 5452,
      "▁rapid": 5453,
      "▁university": 5454,
      "▁machines": 5455,
      "▁sympt": 5456,
      "▁Frank": 5457,
      "zen": 5458,
      "made": 5459,
      "▁rise": 5460,
      "▁agent": 5461,
      "▁Did": 5462,
      "▁output": 5463,
      "athe": 5464,
      "▁moist": 5465,
      "▁sample": 5466,
      "vis": 5467,
      "▁Admin": 5468,
      "▁concrete": 5469,
      "▁diverse": 5470,
      "▁Saf": 5471,
      "▁Ul": 5472,
      "▁quote": 5473,
      "▁Wil": 5474,
      "▁foods": 5475,
      "▁ur": 5476,
      "▁ap": 5477,
      "▁Police": 5478,
      "▁kinds": 5479,
      "▁integrated": 5480,
      "▁fulf": 5481,
      "▁construct": 5482,
      "west": 5483,
      "▁Western": 5484,
      "etic": 5485,
      "rier": 5486,
      "elines": 5487,
      "▁poll": 5488,
      "▁clearly": 5489,
      "▁lifestyle": 5490,
      "orter": 5491,
      "▁label": 5492,
      "▁Vide": 5493,
      "lines": 5494,
      "▁manufacturer": 5495,
      "▁submit": 5496,
      "umes": 5497,
      "▁landscape": 5498,
      "▁Academy": 5499,
      "roy": 5500,
      "▁plays": 5501,
      "▁Key": 5502,
      "▁Ok": 5503,
      "▁Asia": 5504,
      "▁yellow": 5505,
      "▁mel": 5506,
      "▁edition": 5507,
      "▁push": 5508,
      "▁Which": 5509,
      "aked": 5510,
      "▁outstanding": 5511,
      "▁Control": 5512,
      "▁Italian": 5513,
      "ibilities": 5514,
      "▁rear": 5515,
      "▁occup": 5516,
      "quality": 5517,
      "▁ris": 5518,
      "▁Er": 5519,
      "▁Creat": 5520,
      "ring": 5521,
      "▁Trust": 5522,
      "▁Kore": 5523,
      "▁Japanese": 5524,
      "▁Cook": 5525,
      "▁gifts": 5526,
      "▁=": 5527,
      "asts": 5528,
      "▁sitting": 5529,
      "▁awareness": 5530,
      "▁village": 5531,
      "▁searching": 5532,
      "▁oven": 5533,
      "ospit": 5534,
      "▁ec": 5535,
      "▁legisl": 5536,
      "▁logo": 5537,
      "▁stri": 5538,
      "▁Search": 5539,
      "fficient": 5540,
      "▁officials": 5541,
      "▁Louis": 5542,
      "▁serves": 5543,
      "▁adventure": 5544,
      "▁negative": 5545,
      "▁tests": 5546,
      "▁Land": 5547,
      "king": 5548,
      "liers": 5549,
      "▁infrastructure": 5550,
      "▁Fair": 5551,
      "oup": 5552,
      "▁Max": 5553,
      "▁purposes": 5554,
      "▁debt": 5555,
      "▁route": 5556,
      "▁despite": 5557,
      "ulty": 5558,
      "▁Log": 5559,
      "▁mine": 5560,
      "▁Having": 5561,
      "▁Join": 5562,
      "pass": 5563,
      "▁African": 5564,
      "▁motiv": 5565,
      "ora": 5566,
      "▁Royal": 5567,
      "▁Van": 5568,
      "rowse": 5569,
      "▁flexible": 5570,
      "▁thread": 5571,
      "▁nom": 5572,
      "▁destination": 5573,
      "▁desire": 5574,
      "▁depend": 5575,
      "▁interests": 5576,
      "▁victim": 5577,
      "ilst": 5578,
      "▁Men": 5579,
      "▁remaining": 5580,
      "▁Bal": 5581,
      "ags": 5582,
      "▁domain": 5583,
      "▁bread": 5584,
      "▁creation": 5585,
      "▁collaboration": 5586,
      "▁keeps": 5587,
      "istan": 5588,
      "▁holds": 5589,
      "▁privacy": 5590,
      "▁Farm": 5591,
      "▁wid": 5592,
      "▁airport": 5593,
      "▁Way": 5594,
      "abled": 5595,
      "▁innovation": 5596,
      "▁readers": 5597,
      "asp": 5598,
      "▁carefully": 5599,
      "▁paying": 5600,
      "▁workshop": 5601,
      "▁Ol": 5602,
      "LA": 5603,
      "▁input": 5604,
      "▁ped": 5605,
      "▁holding": 5606,
      "▁perman": 5607,
      "▁Supp": 5608,
      "▁winner": 5609,
      "▁accessible": 5610,
      "▁Prem": 5611,
      "orry": 5612,
      "ua": 5613,
      "▁!": 5614,
      "case": 5615,
      "▁burn": 5616,
      "▁invent": 5617,
      "▁revenue": 5618,
      "▁answers": 5619,
      "race": 5620,
      "▁Live": 5621,
      "▁bonus": 5622,
      "olutions": 5623,
      "▁tasks": 5624,
      "with": 5625,
      "▁begins": 5626,
      "▁intellig": 5627,
      "▁unless": 5628,
      "▁Mid": 5629,
      "▁ages": 5630,
      "tending": 5631,
      "owntown": 5632,
      "▁cable": 5633,
      "tered": 5634,
      "arsh": 5635,
      "▁Nov": 5636,
      "alendar": 5637,
      "spe": 5638,
      "▁SP": 5639,
      "▁Peter": 5640,
      "ighter": 5641,
      "▁aid": 5642,
      "▁trends": 5643,
      "ords": 5644,
      "itage": 5645,
      "▁tough": 5646,
      "▁crowd": 5647,
      "▁electrical": 5648,
      "▁procedures": 5649,
      "▁alcohol": 5650,
      "▁renew": 5651,
      "▁Applic": 5652,
      "▁impressive": 5653,
      "▁pleased": 5654,
      "▁elig": 5655,
      "▁Minister": 5656,
      "▁ign": 5657,
      "ias": 5658,
      "▁height": 5659,
      "▁described": 5660,
      "can": 5661,
      "▁thorough": 5662,
      "▁mouth": 5663,
      "▁distribution": 5664,
      "▁pure": 5665,
      "▁printed": 5666,
      "▁executive": 5667,
      "▁Ep": 5668,
      "▁filter": 5669,
      "away": 5670,
      "▁examples": 5671,
      "▁closely": 5672,
      "▁grown": 5673,
      "▁authent": 5674,
      "▁discovered": 5675,
      "▁AT": 5676,
      "anged": 5677,
      "▁Mic": 5678,
      "▁procedure": 5679,
      "▁Victor": 5680,
      "▁Wal": 5681,
      "▁Energy": 5682,
      "▁reb": 5683,
      "dered": 5684,
      "▁CH": 5685,
      "phas": 5686,
      "▁Lu": 5687,
      "▁stre": 5688,
      "rupt": 5689,
      "ushed": 5690,
      "▁MS": 5691,
      "▁forest": 5692,
      "▁vacation": 5693,
      "▁expectations": 5694,
      "▁intended": 5695,
      "achel": 5696,
      "▁essay": 5697,
      "hand": 5698,
      "▁prompt": 5699,
      "▁influence": 5700,
      "▁knowing": 5701,
      "▁dates": 5702,
      "▁Earth": 5703,
      "otic": 5704,
      "▁MA": 5705,
      "▁Dev": 5706,
      "cover": 5707,
      "▁Mult": 5708,
      "yc": 5709,
      "▁photography": 5710,
      "▁tur": 5711,
      "ato": 5712,
      "▁Coast": 5713,
      "▁Maybe": 5714,
      "▁Print": 5715,
      "▁arts": 5716,
      "▁context": 5717,
      "▁crim": 5718,
      "gl": 5719,
      "rid": 5720,
      "▁gorgeous": 5721,
      "▁decades": 5722,
      "▁cop": 5723,
      "GB": 5724,
      "▁channel": 5725,
      "▁row": 5726,
      "▁fitness": 5727,
      "▁Pass": 5728,
      "▁complic": 5729,
      "▁savings": 5730,
      "▁patterns": 5731,
      "▁Conference": 5732,
      "▁veter": 5733,
      "▁voc": 5734,
      "▁assets": 5735,
      "▁chat": 5736,
      "▁informed": 5737,
      "▁agencies": 5738,
      "▁tub": 5739,
      "unting": 5740,
      "▁broken": 5741,
      "▁minor": 5742,
      "▁household": 5743,
      "▁degrees": 5744,
      "▁guy": 5745,
      "▁possess": 5746,
      "▁stars": 5747,
      "▁Robert": 5748,
      "▁administration": 5749,
      "▁Walk": 5750,
      "ena": 5751,
      "▁manufacturers": 5752,
      "▁entr": 5753,
      "▁Bud": 5754,
      "▁choosing": 5755,
      "▁wearing": 5756,
      "nament": 5757,
      "ste": 5758,
      "▁phil": 5759,
      "irms": 5760,
      "▁shares": 5761,
      "▁improvement": 5762,
      "date": 5763,
      "▁ease": 5764,
      "▁reduced": 5765,
      "▁clinical": 5766,
      "▁Digital": 5767,
      "▁rom": 5768,
      "▁vs": 5769,
      "▁considering": 5770,
      "▁Sometimes": 5771,
      "▁belong": 5772,
      "▁facil": 5773,
      "▁eventually": 5774,
      "▁Insurance": 5775,
      "▁Game": 5776,
      "stone": 5777,
      "▁tab": 5778,
      "▁married": 5779,
      "▁assemb": 5780,
      "▁Author": 5781,
      "uits": 5782,
      "▁planned": 5783,
      "olic": 5784,
      "▁oppos": 5785,
      "▁vit": 5786,
      "▁Paris": 5787,
      "▁Span": 5788,
      "▁nearby": 5789,
      "▁meetings": 5790,
      "▁healthcare": 5791,
      "▁bound": 5792,
      "▁hyd": 5793,
      "▁Canadian": 5794,
      "▁investors": 5795,
      "ala": 5796,
      "poration": 5797,
      "▁circum": 5798,
      "▁Living": 5799,
      "▁fourth": 5800,
      "▁constantly": 5801,
      "▁messages": 5802,
      "▁Party": 5803,
      "You": 5804,
      "▁Opt": 5805,
      "▁End": 5806,
      "▁shops": 5807,
      "UN": 5808,
      "▁Need": 5809,
      "CE": 5810,
      "▁photograp": 5811,
      "▁Try": 5812,
      "ache": 5813,
      "▁breath": 5814,
      "ailable": 5815,
      "▁Wild": 5816,
      "olve": 5817,
      "▁Finally": 5818,
      "▁administr": 5819,
      "yard": 5820,
      "odies": 5821,
      "TA": 5822,
      "anda": 5823,
      "▁forg": 5824,
      "Sh": 5825,
      "▁explain": 5826,
      "▁Congress": 5827,
      "▁rug": 5828,
      "ella": 5829,
      "▁der": 5830,
      "▁recorded": 5831,
      "▁offices": 5832,
      "▁opinion": 5833,
      "▁mic": 5834,
      "▁Sup": 5835,
      "▁instance": 5836,
      "▁payments": 5837,
      "▁upper": 5838,
      "▁Come": 5839,
      "▁Chair": 5840,
      "▁Haw": 5841,
      "▁musical": 5842,
      "merce": 5843,
      "▁regional": 5844,
      "▁Nav": 5845,
      "▁challenging": 5846,
      "▁bigger": 5847,
      "▁foundation": 5848,
      "▁movies": 5849,
      "▁recognized": 5850,
      "▁Angeles": 5851,
      "▁possibly": 5852,
      "igr": 5853,
      "▁fishing": 5854,
      "icial": 5855,
      "▁situations": 5856,
      "▁arrest": 5857,
      "▁LED": 5858,
      "▁mountain": 5859,
      "▁fo": 5860,
      "\"<": 5861,
      "▁Mobile": 5862,
      "▁beer": 5863,
      "▁inches": 5864,
      "▁FREE": 5865,
      "▁die": 5866,
      "▁Gen": 5867,
      "▁facing": 5868,
      "▁carried": 5869,
      "▁enthus": 5870,
      "▁Journal": 5871,
      "IV": 5872,
      "▁Chris": 5873,
      "▁inch": 5874,
      "▁standing": 5875,
      "▁realize": 5876,
      "▁rail": 5877,
      "▁employment": 5878,
      "▁univers": 5879,
      "▁codes": 5880,
      "▁atmosphere": 5881,
      "iveness": 5882,
      "▁Garden": 5883,
      "▁decre": 5884,
      "▁tom": 5885,
      "▁battle": 5886,
      "▁Comple": 5887,
      "▁Ver": 5888,
      "ras": 5889,
      "▁affected": 5890,
      "luding": 5891,
      "▁nine": 5892,
      "anges": 5893,
      "▁bags": 5894,
      "▁Know": 5895,
      "▁yesterday": 5896,
      "▁conversation": 5897,
      "▁causes": 5898,
      "▁sequ": 5899,
      "▁freed": 5900,
      "lay": 5901,
      "ello": 5902,
      "acks": 5903,
      "▁Proper": 5904,
      "bur": 5905,
      "▁adapt": 5906,
      "ENT": 5907,
      "▁Ma": 5908,
      "▁fro": 5909,
      "▁Cross": 5910,
      "▁carpet": 5911,
      "▁external": 5912,
      "▁DV": 5913,
      "▁Library": 5914,
      "berry": 5915,
      "▁Ire": 5916,
      "▁Second": 5917,
      "lete": 5918,
      "▁symptoms": 5919,
      "▁attra": 5920,
      "iter": 5921,
      "▁matters": 5922,
      "▁protected": 5923,
      "▁Low": 5924,
      "▁dent": 5925,
      "▁Expl": 5926,
      "▁tagged": 5927,
      "▁layer": 5928,
      "▁vir": 5929,
      "▁ends": 5930,
      "front": 5931,
      "resp": 5932,
      "▁satisfaction": 5933,
      "▁receiving": 5934,
      "▁Instead": 5935,
      "▁writer": 5936,
      "▁Store": 5937,
      "▁AR": 5938,
      "▁Travel": 5939,
      "▁Current": 5940,
      "gs": 5941,
      "▁cos": 5942,
      "▁Mexico": 5943,
      "▁dollars": 5944,
      "▁er": 5945,
      "▁Sar": 5946,
      "folio": 5947,
      "▁Vill": 5948,
      "▁Hospital": 5949,
      "▁skill": 5950,
      "▁Help": 5951,
      "▁fif": 5952,
      "▁Cas": 5953,
      "▁wet": 5954,
      "▁assessment": 5955,
      "equ": 5956,
      "▁female": 5957,
      "▁lived": 5958,
      "▁twice": 5959,
      "▁mixture": 5960,
      "▁native": 5961,
      "▁earned": 5962,
      "▁entreprene": 5963,
      "▁appeared": 5964,
      "ye": 5965,
      "▁soul": 5966,
      "▁editor": 5967,
      "▁arrived": 5968,
      "▁loves": 5969,
      "▁Jose": 5970,
      "▁Pac": 5971,
      "▁PA": 5972,
      "otten": 5973,
      "▁Price": 5974,
      "vy": 5975,
      "▁Little": 5976,
      "▁engage": 5977,
      "▁vital": 5978,
      "▁rule": 5979,
      "▁excess": 5980,
      "▁Charl": 5981,
      "▁mirr": 5982,
      "kes": 5983,
      "’.": 5984,
      "▁television": 5985,
      "▁emphas": 5986,
      "▁treated": 5987,
      "▁Pin": 5988,
      "▁passeng": 5989,
      "▁Dub": 5990,
      "▁Instagram": 5991,
      "▁creates": 5992,
      "inds": 5993,
      "▁unc": 5994,
      "▁powder": 5995,
      "▁conver": 5996,
      "▁Jul": 5997,
      "SP": 5998,
      "fa": 5999,
      "▁transportation": 6000,
      "▁yes": 6001,
      "▁Jim": 6002,
      "profit": 6003,
      "▁bottle": 6004,
      "▁Bi": 6005,
      "▁basket": 6006,
      "▁Middle": 6007,
      "▁historical": 6008,
      "▁factor": 6009,
      "▁Tit": 6010,
      "yan": 6011,
      "▁Hard": 6012,
      "▁specialist": 6013,
      "▁horse": 6014,
      "▁Week": 6015,
      "▁conducted": 6016,
      "▁PDF": 6017,
      "▁pink": 6018,
      "▁Made": 6019,
      "▁vend": 6020,
      "▁password": 6021,
      "▁Assist": 6022,
      "▁Code": 6023,
      "▁domestic": 6024,
      "▁operate": 6025,
      "CT": 6026,
      "▁root": 6027,
      "▁arrive": 6028,
      "▁stands": 6029,
      "lights": 6030,
      "▁classroom": 6031,
      "▁river": 6032,
      "gend": 6033,
      "▁talent": 6034,
      "▁extended": 6035,
      "▁command": 6036,
      "▁doubt": 6037,
      "▁Cast": 6038,
      "▁alle": 6039,
      "▁issued": 6040,
      "▁Champions": 6041,
      "okes": 6042,
      "▁cooper": 6043,
      "▁museum": 6044,
      "wing": 6045,
      "▁consultation": 6046,
      "▁mixed": 6047,
      "but": 6048,
      "▁debut": 6049,
      "▁Mov": 6050,
      "▁Fun": 6051,
      "▁Happy": 6052,
      "illiant": 6053,
      "▁gro": 6054,
      "irmed": 6055,
      "▁Execut": 6056,
      "▁distinct": 6057,
      "▁hotels": 6058,
      "▁filed": 6059,
      "▁removal": 6060,
      "▁charm": 6061,
      "▁CO": 6062,
      "▁missed": 6063,
      "▁festival": 6064,
      "▁Works": 6065,
      "▁clothes": 6066,
      "▁accepted": 6067,
      "▁Systems": 6068,
      "tr": 6069,
      "▁negot": 6070,
      "▁Further": 6071,
      "▁researchers": 6072,
      "▁Flo": 6073,
      "▁significantly": 6074,
      "▁Scot": 6075,
      "▁Penn": 6076,
      "▁Wi": 6077,
      "▁sustainable": 6078,
      "▁moments": 6079,
      "PR": 6080,
      "▁Thomas": 6081,
      "▁Commun": 6082,
      "▁fort": 6083,
      "▁returns": 6084,
      "xy": 6085,
      "▁Id": 6086,
      "▁injuries": 6087,
      "▁viewed": 6088,
      "▁AD": 6089,
      "▁charged": 6090,
      "▁Smart": 6091,
      "kins": 6092,
      "▁clothing": 6093,
      "▁reputation": 6094,
      "▁ongoing": 6095,
      "oral": 6096,
      "▁treatments": 6097,
      "dem": 6098,
      "▁agents": 6099,
      "▁interface": 6100,
      "▁membership": 6101,
      "▁engagement": 6102,
      "ardens": 6103,
      "▁Should": 6104,
      "▁improving": 6105,
      "▁attorney": 6106,
      "▁sister": 6107,
      "▁perspective": 6108,
      "▁lessons": 6109,
      "▁guitar": 6110,
      "▁kill": 6111,
      "▁pregn": 6112,
      "▁availability": 6113,
      "▁prop": 6114,
      "▁regul": 6115,
      "▁lapt": 6116,
      "▁virtual": 6117,
      "▁wash": 6118,
      "which": 6119,
      "obby": 6120,
      "▁Human": 6121,
      "▁pod": 6122,
      "▁strategic": 6123,
      "▁Auto": 6124,
      "▁elegant": 6125,
      "▁pricing": 6126,
      "▁managing": 6127,
      "▁blend": 6128,
      "▁routine": 6129,
      "▁tall": 6130,
      "▁hang": 6131,
      "cers": 6132,
      "▁Ball": 6133,
      "▁finest": 6134,
      "▁Sports": 6135,
      "▁citizens": 6136,
      "▁organized": 6137,
      "▁episode": 6138,
      "▁medicine": 6139,
      "▁nor": 6140,
      "comes": 6141,
      "weet": 6142,
      "iece": 6143,
      "plates": 6144,
      "▁incl": 6145,
      "▁transition": 6146,
      "▁Econom": 6147,
      "▁commission": 6148,
      "▁emotional": 6149,
      "tle": 6150,
      "afe": 6151,
      "▁printing": 6152,
      "▁hall": 6153,
      "po": 6154,
      "▁involve": 6155,
      "oston": 6156,
      "▁guidance": 6157,
      "acious": 6158,
      "▁Georg": 6159,
      "▁identified": 6160,
      "▁superior": 6161,
      "▁invited": 6162,
      "▁awards": 6163,
      "▁mining": 6164,
      "▁heating": 6165,
      "▁tested": 6166,
      "▁mal": 6167,
      "▁Box": 6168,
      "▁smile": 6169,
      "▁flavor": 6170,
      "EE": 6171,
      "quir": 6172,
      "▁founded": 6173,
      "▁Meet": 6174,
      "▁monitor": 6175,
      "▁positions": 6176,
      "▁Sn": 6177,
      "▁Select": 6178,
      "▁historic": 6179,
      "▁Virginia": 6180,
      "▁Point": 6181,
      "▁Carolina": 6182,
      "▁Spanish": 6183,
      "▁Link": 6184,
      "▁frequently": 6185,
      "rency": 6186,
      "▁institutions": 6187,
      "▁km": 6188,
      "odel": 6189,
      "▁Bow": 6190,
      "▁Chief": 6191,
      "▁proposed": 6192,
      "▁confident": 6193,
      "▁Jud": 6194,
      "▁tech": 6195,
      "▁turns": 6196,
      "▁Italy": 6197,
      "▁Boy": 6198,
      "▁dynamic": 6199,
      "▁industries": 6200,
      "▁taught": 6201,
      "▁monitoring": 6202,
      "▁Pri": 6203,
      "hire": 6204,
      "za": 6205,
      "▁awarded": 6206,
      "▁argu": 6207,
      "▁description": 6208,
      "▁cycle": 6209,
      "▁closer": 6210,
      "▁depth": 6211,
      "▁Airport": 6212,
      "▁revealed": 6213,
      "▁Mike": 6214,
      "▁boys": 6215,
      "▁loans": 6216,
      "▁caught": 6217,
      "▁advoc": 6218,
      "ansion": 6219,
      "▁attached": 6220,
      "erves": 6221,
      "▁exhibition": 6222,
      "othe": 6223,
      "uine": 6224,
      "▁athlet": 6225,
      "▁publish": 6226,
      "▁scientific": 6227,
      "▁surprise": 6228,
      "▁typical": 6229,
      "ennis": 6230,
      "isation": 6231,
      "▁..": 6232,
      "▁Ireland": 6233,
      "▁magazine": 6234,
      "▁Want": 6235,
      "▁Building": 6236,
      "▁circumst": 6237,
      "TC": 6238,
      "gration": 6239,
      "▁enables": 6240,
      "related": 6241,
      "▁performing": 6242,
      "He": 6243,
      "▁Ent": 6244,
      "ta": 6245,
      "▁films": 6246,
      "▁graduate": 6247,
      "▁Sky": 6248,
      "▁architecture": 6249,
      "▁pil": 6250,
      "▁Russian": 6251,
      "▁usual": 6252,
      "site": 6253,
      "▁booking": 6254,
      "▁contra": 6255,
      "igration": 6256,
      "▁teen": 6257,
      "▁Jun": 6258,
      "writ": 6259,
      "holder": 6260,
      "▁carbon": 6261,
      "elry": 6262,
      "mond": 6263,
      "▁collected": 6264,
      "▁Young": 6265,
      "irty": 6266,
      "▁recipes": 6267,
      "▁massive": 6268,
      "▁picked": 6269,
      "▁rough": 6270,
      "▁obl": 6271,
      "▁implementation": 6272,
      "▁proven": 6273,
      "ouch": 6274,
      "▁pharm": 6275,
      "ears": 6276,
      "▁mold": 6277,
      "▁Du": 6278,
      "▁attended": 6279,
      "▁browser": 6280,
      "friendly": 6281,
      "▁capture": 6282,
      "▁ensuring": 6283,
      "▁ultimate": 6284,
      "utch": 6285,
      "▁Zeal": 6286,
      "▁weekly": 6287,
      "▁Ken": 6288,
      "▁Account": 6289,
      "▁Exam": 6290,
      "▁Santa": 6291,
      "iano": 6292,
      "▁trouble": 6293,
      "ban": 6294,
      "▁tank": 6295,
      "▁Martin": 6296,
      "▁deploy": 6297,
      "terior": 6298,
      "▁tap": 6299,
      "▁Quality": 6300,
      "▁soph": 6301,
      "LS": 6302,
      "▁preparation": 6303,
      "▁scholars": 6304,
      "yers": 6305,
      "▁Orig": 6306,
      "▁EU": 6307,
      "lymp": 6308,
      "▁bless": 6309,
      "▁Training": 6310,
      "▁determined": 6311,
      "▁colours": 6312,
      "▁versions": 6313,
      "▁cabinet": 6314,
      "▁reward": 6315,
      "erse": 6316,
      "▁urban": 6317,
      "**": 6318,
      "▁default": 6319,
      "▁exceptional": 6320,
      "▁Image": 6321,
      "arian": 6322,
      "▁attractive": 6323,
      "▁speaking": 6324,
      "what": 6325,
      "▁meals": 6326,
      "uction": 6327,
      "▁instruct": 6328,
      "neys": 6329,
      "Com": 6330,
      "▁Video": 6331,
      "▁Lin": 6332,
      "▁Marketing": 6333,
      "abet": 6334,
      "▁purs": 6335,
      "▁Three": 6336,
      "▁swimming": 6337,
      "▁whenever": 6338,
      "▁climb": 6339,
      "▁Modern": 6340,
      "aren": 6341,
      "RI": 6342,
      "▁protein": 6343,
      "▁Dom": 6344,
      "stal": 6345,
      "▁Steel": 6346,
      "▁stretch": 6347,
      "▁Local": 6348,
      "▁Conc": 6349,
      "rum": 6350,
      "HS": 6351,
      "▁crack": 6352,
      "ether": 6353,
      "▁Summer": 6354,
      "▁objects": 6355,
      "▁compens": 6356,
      "orders": 6357,
      "edia": 6358,
      "▁Visit": 6359,
      "cue": 6360,
      "▁Report": 6361,
      "▁desired": 6362,
      "esh": 6363,
      "▁wealth": 6364,
      "ndom": 6365,
      "▁SU": 6366,
      "▁platforms": 6367,
      "arrow": 6368,
      "proof": 6369,
      "▁whom": 6370,
      "▁Zealand": 6371,
      "▁compat": 6372,
      "▁retire": 6373,
      "▁extension": 6374,
      "▁Kn": 6375,
      "▁Area": 6376,
      "▁liquid": 6377,
      "▁grab": 6378,
      "▁BE": 6379,
      "▁Boston": 6380,
      "▁vibr": 6381,
      "tain": 6382,
      "▁Professional": 6383,
      "▁Games": 6384,
      "▁candidate": 6385,
      "▁Times": 6386,
      "▁Engineering": 6387,
      "iana": 6388,
      ".\"<": 6389,
      "▁Therefore": 6390,
      "▁technique": 6391,
      "asant": 6392,
      "pection": 6393,
      "▁sad": 6394,
      "oured": 6395,
      "▁identity": 6396,
      "▁affil": 6397,
      "elly": 6398,
      "▁acid": 6399,
      "▁Southern": 6400,
      "gas": 6401,
      "▁travell": 6402,
      "▁sink": 6403,
      "%.": 6404,
      "▁boxes": 6405,
      "PC": 6406,
      "▁McC": 6407,
      "car": 6408,
      "▁Decor": 6409,
      "▁listing": 6410,
      "▁Choose": 6411,
      "▁tooth": 6412,
      "▁packages": 6413,
      "▁bes": 6414,
      "iversary": 6415,
      "hors": 6416,
      "itable": 6417,
      "▁Turn": 6418,
      "▁failed": 6419,
      "▁Give": 6420,
      "▁dust": 6421,
      "▁Right": 6422,
      "▁grass": 6423,
      "ca": 6424,
      "▁conflic": 6425,
      "▁adds": 6426,
      "▁Jeff": 6427,
      "▁Secret": 6428,
      "▁Ford": 6429,
      "▁compare": 6430,
      "▁election": 6431,
      "▁Ash": 6432,
      "▁repairs": 6433,
      "arks": 6434,
      "▁joining": 6435,
      "▁hospit": 6436,
      "▁fell": 6437,
      "▁Page": 6438,
      "▁adm": 6439,
      "worth": 6440,
      "astern": 6441,
      "▁column": 6442,
      "▁Financial": 6443,
      "▁Girl": 6444,
      "da": 6445,
      "▁Sales": 6446,
      "bles": 6447,
      "▁drugs": 6448,
      "▁Would": 6449,
      "umni": 6450,
      "irts": 6451,
      "▁Ut": 6452,
      "va": 6453,
      "▁chief": 6454,
      "▁west": 6455,
      "▁DC": 6456,
      "▁consists": 6457,
      "▁bedrooms": 6458,
      "▁OR": 6459,
      "▁wooden": 6460,
      "▁contribute": 6461,
      "▁investigation": 6462,
      "▁concerned": 6463,
      "▁Night": 6464,
      "▁tomorrow": 6465,
      "▁mainly": 6466,
      "▁soil": 6467,
      "▁Silver": 6468,
      "▁vast": 6469,
      "▁hel": 6470,
      "▁freedom": 6471,
      "▁killed": 6472,
      "▁Russia": 6473,
      "▁buyers": 6474,
      "▁stainless": 6475,
      "oh": 6476,
      "odge": 6477,
      "▁sole": 6478,
      "▁panels": 6479,
      "resents": 6480,
      "▁factory": 6481,
      "▁Awards": 6482,
      "▁flash": 6483,
      "GE": 6484,
      "lywood": 6485,
      "secut": 6486,
      "▁vintage": 6487,
      "▁Columb": 6488,
      "▁drawing": 6489,
      "▁Though": 6490,
      "▁alumin": 6491,
      "▁Es": 6492,
      "ava": 6493,
      "isters": 6494,
      "▁rein": 6495,
      "▁solve": 6496,
      "TH": 6497,
      "▁finance": 6498,
      "class": 6499,
      "▁capable": 6500,
      "▁OS": 6501,
      "▁Jersey": 6502,
      "▁undert": 6503,
      "▁anx": 6504,
      "FL": 6505,
      "▁Four": 6506,
      "▁shock": 6507,
      "▁param": 6508,
      "▁bear": 6509,
      "▁severe": 6510,
      "▁networks": 6511,
      "aturally": 6512,
      "▁random": 6513,
      "▁pun": 6514,
      "▁ther": 6515,
      "▁handling": 6516,
      "real": 6517,
      "izza": 6518,
      "▁Olymp": 6519,
      "BI": 6520,
      "▁hook": 6521,
      "▁holidays": 6522,
      "cket": 6523,
      "remony": 6524,
      "nic": 6525,
      "▁scored": 6526,
      "oses": 6527,
      "▁turning": 6528,
      "▁contest": 6529,
      "▁alongside": 6530,
      "▁Executive": 6531,
      "izer": 6532,
      "Re": 6533,
      "▁regulations": 6534,
      "ading": 6535,
      "▁enjoying": 6536,
      "▁Oil": 6537,
      "▁noted": 6538,
      "▁dangerous": 6539,
      "▁Form": 6540,
      "▁Install": 6541,
      "▁reporting": 6542,
      "▁compr": 6543,
      "▁flower": 6544,
      "▁failure": 6545,
      "▁developers": 6546,
      "▁risks": 6547,
      "ossible": 6548,
      "▁seemed": 6549,
      "▁portfolio": 6550,
      "▁blogg": 6551,
      "▁functional": 6552,
      "eller": 6553,
      "▁synt": 6554,
      "▁forces": 6555,
      "cm": 6556,
      "MP": 6557,
      "▁elev": 6558,
      "▁bond": 6559,
      "▁toile": 6560,
      "▁reasonable": 6561,
      "▁happening": 6562,
      "▁sac": 6563,
      "ucle": 6564,
      "apping": 6565,
      "build": 6566,
      "▁coc": 6567,
      "????": 6568,
      "print": 6569,
      "asters": 6570,
      "▁unex": 6571,
      "enced": 6572,
      "▁rice": 6573,
      "ingly": 6574,
      "▁Cra": 6575,
      "▁witness": 6576,
      "▁https": 6577,
      "▁normally": 6578,
      "▁Hor": 6579,
      "▁ceiling": 6580,
      "▁bench": 6581,
      "osoph": 6582,
      "▁suppliers": 6583,
      "▁instrument": 6584,
      "▁king": 6585,
      "▁imagine": 6586,
      "▁Rev": 6587,
      "▁honor": 6588,
      "▁phase": 6589,
      "▁venue": 6590,
      "▁licensed": 6591,
      "▁flooring": 6592,
      "▁thin": 6593,
      "▁defense": 6594,
      "▁achieved": 6595,
      "▁Mur": 6596,
      "▁Perform": 6597,
      "▁Comput": 6598,
      "▁Being": 6599,
      "▁Democr": 6600,
      "▁twe": 6601,
      "ikes": 6602,
      "▁Copy": 6603,
      "▁originally": 6604,
      "▁cro": 6605,
      "Fi": 6606,
      "▁graphics": 6607,
      "▁linked": 6608,
      "▁tiny": 6609,
      "▁Unfortunately": 6610,
      "▁motion": 6611,
      "▁represents": 6612,
      "▁sky": 6613,
      "iser": 6614,
      "▁stated": 6615,
      "▁generate": 6616,
      "▁contrast": 6617,
      "▁Federal": 6618,
      "▁county": 6619,
      "▁presents": 6620,
      "▁hidden": 6621,
      "▁flood": 6622,
      "▁san": 6623,
      "olved": 6624,
      "▁ran": 6625,
      "▁capabilities": 6626,
      "▁crucial": 6627,
      "uts": 6628,
      "▁visited": 6629,
      "sung": 6630,
      "▁FOR": 6631,
      "▁Sale": 6632,
      "Tube": 6633,
      "ensity": 6634,
      "▁grew": 6635,
      "▁renov": 6636,
      "▁eligible": 6637,
      "▁magn": 6638,
      "▁purchasing": 6639,
      "▁officer": 6640,
      "▁noticed": 6641,
      "aired": 6642,
      ");": 6643,
      "▁agreed": 6644,
      "▁aspect": 6645,
      "SC": 6646,
      "▁Mean": 6647,
      "▁confirmed": 6648,
      "▁mur": 6649,
      "▁mile": 6650,
      "inem": 6651,
      "▁hosted": 6652,
      "▁SC": 6653,
      "▁mut": 6654,
      "▁lad": 6655,
      "▁draft": 6656,
      "ulpt": 6657,
      "iking": 6658,
      "under": 6659,
      "▁fasc": 6660,
      "▁proof": 6661,
      "▁pride": 6662,
      "pes": 6663,
      "▁disappoint": 6664,
      "▁spiritual": 6665,
      "▁Def": 6666,
      "▁rose": 6667,
      "amps": 6668,
      "▁seats": 6669,
      "▁Disney": 6670,
      "▁Repair": 6671,
      "▁Ohio": 6672,
      "▁tack": 6673,
      "▁incorpor": 6674,
      "lace": 6675,
      "▁hopes": 6676,
      "▁banks": 6677,
      "▁consequ": 6678,
      "oking": 6679,
      "▁Lee": 6680,
      "▁diagram": 6681,
      "▁Hon": 6682,
      "▁categories": 6683,
      "▁cotton": 6684,
      "▁recording": 6685,
      "▁firms": 6686,
      "udden": 6687,
      "duate": 6688,
      "▁trig": 6689,
      "▁entered": 6690,
      "▁spin": 6691,
      "▁Sea": 6692,
      "eration": 6693,
      "▁tracks": 6694,
      "▁Jon": 6695,
      "▁Despite": 6696,
      "▁CR": 6697,
      "▁volunteers": 6698,
      "▁Beautiful": 6699,
      "▁patio": 6700,
      "▁hero": 6701,
      "▁yard": 6702,
      "▁Ell": 6703,
      "ircle": 6704,
      "ani": 6705,
      "▁whilst": 6706,
      "▁syn": 6707,
      "▁ancient": 6708,
      "alle": 6709,
      "▁nutrition": 6710,
      "▁Quest": 6711,
      "▁index": 6712,
      "▁trib": 6713,
      "▁absor": 6714,
      "▁equal": 6715,
      "▁sight": 6716,
      "▁unable": 6717,
      "▁counsel": 6718,
      "aze": 6719,
      "▁Gallery": 6720,
      "▁fest": 6721,
      "▁pill": 6722,
      "▁Industr": 6723,
      "▁combine": 6724,
      "▁Save": 6725,
      "hem": 6726,
      "hew": 6727,
      "▁utility": 6728,
      "▁upgrade": 6729,
      "▁Drive": 6730,
      "▁ear": 6731,
      "▁Guide": 6732,
      "▁scan": 6733,
      "▁superv": 6734,
      "▁eggs": 6735,
      "▁ast": 6736,
      "▁ordered": 6737,
      "▁likes": 6738,
      "▁History": 6739,
      "▁flag": 6740,
      "▁Pract": 6741,
      "▁Cath": 6742,
      "holders": 6743,
      "▁consistent": 6744,
      "iances": 6745,
      "▁USB": 6746,
      "▁Americans": 6747,
      "▁committee": 6748,
      "▁immediate": 6749,
      "▁Autom": 6750,
      "▁flour": 6751,
      "▁DI": 6752,
      "▁Put": 6753,
      "▁Michigan": 6754,
      "▁scheme": 6755,
      "▁exposure": 6756,
      "▁Machine": 6757,
      "▁entirely": 6758,
      "vas": 6759,
      "▁HP": 6760,
      "▁memories": 6761,
      "▁newly": 6762,
      "▁coloring": 6763,
      "▁proceed": 6764,
      "▁Remember": 6765,
      "gers": 6766,
      "▁Stone": 6767,
      "▁Hen": 6768,
      "▁odd": 6769,
      "▁rating": 6770,
      "▁Tax": 6771,
      "▁anticip": 6772,
      "▁displayed": 6773,
      "▁enterprise": 6774,
      "▁precise": 6775,
      "bury": 6776,
      "bra": 6777,
      "▁interactive": 6778,
      "▁communications": 6779,
      "you": 6780,
      "▁calendar": 6781,
      "awn": 6782,
      "▁vari": 6783,
      "▁Think": 6784,
      "▁FL": 6785,
      "▁floors": 6786,
      "▁wireless": 6787,
      "▁permanent": 6788,
      "▁Colorado": 6789,
      "▁rig": 6790,
      "▁Pacific": 6791,
      "▁widely": 6792,
      "inyl": 6793,
      "▁weap": 6794,
      "▁Run": 6795,
      "ially": 6796,
      "▁array": 6797,
      "▁increases": 6798,
      "▁mortgage": 6799,
      "anger": 6800,
      "▁weak": 6801,
      "▁LLC": 6802,
      "igned": 6803,
      "apore": 6804,
      "▁stylish": 6805,
      "itz": 6806,
      "▁criminal": 6807,
      "▁formal": 6808,
      "zil": 6809,
      "▁circumstances": 6810,
      "▁insight": 6811,
      "▁bars": 6812,
      "▁Pop": 6813,
      "ools": 6814,
      "▁relatively": 6815,
      "▁Son": 6816,
      "▁tells": 6817,
      "▁tiss": 6818,
      "▁compliance": 6819,
      "▁clicking": 6820,
      "II": 6821,
      "▁wallpaper": 6822,
      "▁Mountain": 6823,
      "▁accommodation": 6824,
      "▁Toy": 6825,
      "▁listening": 6826,
      "▁diss": 6827,
      "▁Members": 6828,
      "▁expenses": 6829,
      "▁marriage": 6830,
      "inn": 6831,
      "▁YouTube": 6832,
      "ographic": 6833,
      "▁Phys": 6834,
      "▁skilled": 6835,
      "▁Bathroom": 6836,
      "celer": 6837,
      "▁Environment": 6838,
      "▁Rose": 6839,
      "▁papers": 6840,
      "alled": 6841,
      "▁Safety": 6842,
      "▁Brand": 6843,
      "▁figures": 6844,
      "wear": 6845,
      "▁Job": 6846,
      "▁formed": 6847,
      "▁Cover": 6848,
      "▁guaranteed": 6849,
      "▁personally": 6850,
      "mary": 6851,
      "▁stopped": 6852,
      "▁unf": 6853,
      "▁dishes": 6854,
      "▁ok": 6855,
      "▁Pot": 6856,
      "▁ol": 6857,
      "▁shooting": 6858,
      "ansas": 6859,
      "▁Arab": 6860,
      "▁por": 6861,
      "▁component": 6862,
      "▁submitted": 6863,
      "host": 6864,
      "▁priority": 6865,
      "▁LA": 6866,
      "▁delivering": 6867,
      "▁designers": 6868,
      "lyn": 6869,
      "▁SEO": 6870,
      "▁Northern": 6871,
      "▁Bang": 6872,
      "oir": 6873,
      "▁Coll": 6874,
      "▁coat": 6875,
      "▁dreams": 6876,
      "adow": 6877,
      "▁Easy": 6878,
      "▁Country": 6879,
      "imize": 6880,
      "▁Connect": 6881,
      "▁durable": 6882,
      "▁Bul": 6883,
      "▁transp": 6884,
      "▁trim": 6885,
      "omy": 6886,
      "▁raw": 6887,
      "▁crime": 6888,
      "▁concentr": 6889,
      "▁letters": 6890,
      "▁resistance": 6891,
      "▁border": 6892,
      "▁subscrib": 6893,
      "▁communicate": 6894,
      "▁lawyer": 6895,
      "▁Dog": 6896,
      "▁complim": 6897,
      "▁replaced": 6898,
      "long": 6899,
      "▁brilliant": 6900,
      "▁conv": 6901,
      "▁Die": 6902,
      "entle": 6903,
      "▁Stock": 6904,
      "▁merch": 6905,
      "▁spark": 6906,
      "!!!!": 6907,
      "DS": 6908,
      "ership": 6909,
      "▁baking": 6910,
      "etry": 6911,
      "▁bridge": 6912,
      "▁managers": 6913,
      "luded": 6914,
      "▁script": 6915,
      "ev": 6916,
      "roph": 6917,
      "▁Software": 6918,
      "▁blank": 6919,
      "▁WH": 6920,
      "▁workshops": 6921,
      "onto": 6922,
      "▁Additionally": 6923,
      "ba": 6924,
      "agues": 6925,
      "▁tip": 6926,
      "▁Steve": 6927,
      "▁delay": 6928,
      "▁Map": 6929,
      "▁Order": 6930,
      "ogue": 6931,
      "▁requests": 6932,
      "▁hoping": 6933,
      "▁SH": 6934,
      "ials": 6935,
      "df": 6936,
      "▁dealing": 6937,
      "▁pleasure": 6938,
      "▁Product": 6939,
      "erning": 6940,
      "bar": 6941,
      "▁tile": 6942,
      "▁Richard": 6943,
      "▁minimal": 6944,
      "stery": 6945,
      "▁speech": 6946,
      "Cl": 6947,
      "▁defined": 6948,
      "▁lucky": 6949,
      "rig": 6950,
      "▁faculty": 6951,
      "iary": 6952,
      "FC": 6953,
      "pat": 6954,
      "▁producing": 6955,
      "▁genuine": 6956,
      "▁roles": 6957,
      "▁Available": 6958,
      "illy": 6959,
      "▁Ram": 6960,
      "▁forum": 6961,
      "▁duty": 6962,
      "▁Furn": 6963,
      "▁Never": 6964,
      "▁Still": 6965,
      "▁ads": 6966,
      "▁Perfect": 6967,
      "MC": 6968,
      "▁portion": 6969,
      "▁Line": 6970,
      "▁Photo": 6971,
      "▁warranty": 6972,
      "oster": 6973,
      "▁displ": 6974,
      "▁Joe": 6975,
      "▁officers": 6976,
      "▁Ref": 6977,
      "▁visitor": 6978,
      "▁spray": 6979,
      "▁DVD": 6980,
      "▁streets": 6981,
      "▁resulting": 6982,
      "greg": 6983,
      "state": 6984,
      "▁vul": 6985,
      "osa": 6986,
      "▁authentic": 6987,
      "cture": 6988,
      "LY": 6989,
      "▁programming": 6990,
      "bridge": 6991,
      "▁matches": 6992,
      "person": 6993,
      "▁Johnson": 6994,
      "▁relief": 6995,
      "▁stake": 6996,
      "▁Cut": 6997,
      "▁aims": 6998,
      "▁Samsung": 6999,
      "▁channels": 7000,
      "ogether": 7001,
      "▁setup": 7002,
      "▁covering": 7003,
      "▁gym": 7004,
      "▁vegetables": 7005,
      "▁recommendations": 7006,
      "▁PS": 7007,
      "▁Andrew": 7008,
      "▁magic": 7009,
      "▁reducing": 7010,
      "▁Base": 7011,
      "▁Pict": 7012,
      "▁Heart": 7013,
      "days": 7014,
      "▁Senior": 7015,
      "▁Francisco": 7016,
      "▁Space": 7017,
      "▁trick": 7018,
      "▁Mat": 7019,
      "▁supposed": 7020,
      "▁folks": 7021,
      "▁hur": 7022,
      "▁string": 7023,
      "▁estimated": 7024,
      "▁meets": 7025,
      "oty": 7026,
      "sec": 7027,
      "▁Station": 7028,
      "▁fits": 7029,
      "▁downtown": 7030,
      "agon": 7031,
      "xual": 7032,
      "▁liked": 7033,
      "▁illness": 7034,
      "▁recognize": 7035,
      "▁obtained": 7036,
      "▁unlike": 7037,
      "▁Non": 7038,
      "▁unexpected": 7039,
      "▁Kids": 7040,
      "▁ceremony": 7041,
      "asting": 7042,
      "uis": 7043,
      "▁drinks": 7044,
      "▁healing": 7045,
      "▁seed": 7046,
      "▁cock": 7047,
      "▁suc": 7048,
      "mend": 7049,
      "▁guard": 7050,
      "iler": 7051,
      "▁versat": 7052,
      "▁worse": 7053,
      "▁photographs": 7054,
      "▁Far": 7055,
      "▁laptop": 7056,
      "inch": 7057,
      "rick": 7058,
      "▁incident": 7059,
      "▁FA": 7060,
      "▁certification": 7061,
      "▁Williams": 7062,
      "▁packaging": 7063,
      "▁resume": 7064,
      "▁chairs": 7065,
      "pack": 7066,
      "▁accomplish": 7067,
      "ati": 7068,
      "rich": 7069,
      "CD": 7070,
      "ione": 7071,
      "▁seriously": 7072,
      "uses": 7073,
      "▁concert": 7074,
      "ulf": 7075,
      "level": 7076,
      "aven": 7077,
      "ingu": 7078,
      "▁Professor": 7079,
      "ls": 7080,
      "▁funny": 7081,
      "▁Georgia": 7082,
      "she": 7083,
      "▁Contin": 7084,
      "▁connections": 7085,
      "lers": 7086,
      "▁explained": 7087,
      "otive": 7088,
      "▁Lib": 7089,
      "▁blocks": 7090,
      "▁sending": 7091,
      "▁usage": 7092,
      "▁Queen": 7093,
      "▁Sus": 7094,
      "▁indoor": 7095,
      "▁apparent": 7096,
      "▁convenience": 7097,
      "▁SE": 7098,
      "▁Wr": 7099,
      "▁flights": 7100,
      "▁behalf": 7101,
      "▁belief": 7102,
      "▁Bob": 7103,
      "▁resort": 7104,
      "▁theory": 7105,
      "redit": 7106,
      "▁Studio": 7107,
      "▁maintaining": 7108,
      "forcement": 7109,
      "▁Ter": 7110,
      "ns": 7111,
      "▁east": 7112,
      "▁Below": 7113,
      "pret": 7114,
      "▁Fre": 7115,
      "▁Jackson": 7116,
      "▁pocket": 7117,
      "▁Oak": 7118,
      "▁approval": 7119,
      "▁promise": 7120,
      "▁agricult": 7121,
      "CO": 7122,
      "▁flexibility": 7123,
      "ulum": 7124,
      "▁lift": 7125,
      "Ex": 7126,
      "using": 7127,
      "▁millions": 7128,
      "▁enroll": 7129,
      "lessly": 7130,
      "▁Consult": 7131,
      "▁zone": 7132,
      "▁forced": 7133,
      "▁suggestions": 7134,
      "▁Singapore": 7135,
      "▁automatic": 7136,
      "ifies": 7137,
      "▁Glass": 7138,
      "▁phones": 7139,
      "▁Collection": 7140,
      "▁losing": 7141,
      "▁clar": 7142,
      "▁amen": 7143,
      "▁Based": 7144,
      "▁Private": 7145,
      "▁judge": 7146,
      "▁Jones": 7147,
      "▁guidelines": 7148,
      "▁refresh": 7149,
      "▁planet": 7150,
      "▁celebration": 7151,
      "▁Ha": 7152,
      "▁Prom": 7153,
      "▁export": 7154,
      "▁discussed": 7155,
      "▁Previous": 7156,
      "una": 7157,
      "▁yours": 7158,
      "ml": 7159,
      "▁Personal": 7160,
      "▁Flow": 7161,
      "▁marks": 7162,
      "▁authorities": 7163,
      "bi": 7164,
      "ubs": 7165,
      "▁talks": 7166,
      "▁gall": 7167,
      "▁none": 7168,
      "▁SS": 7169,
      "ico": 7170,
      "▁Tele": 7171,
      "▁forecast": 7172,
      "▁integration": 7173,
      "▁crazy": 7174,
      "▁constant": 7175,
      "▁entrance": 7176,
      "respond": 7177,
      "▁Fed": 7178,
      "▁possibility": 7179,
      "tics": 7180,
      "▁mm": 7181,
      "▁Limited": 7182,
      "born": 7183,
      "oof": 7184,
      "▁shots": 7185,
      "terest": 7186,
      "Pro": 7187,
      "’,": 7188,
      "▁decade": 7189,
      "▁muscle": 7190,
      "▁substant": 7191,
      "▁structures": 7192,
      "▁Foot": 7193,
      "▁Hou": 7194,
      "▁orange": 7195,
      "ja": 7196,
      "▁telling": 7197,
      "▁habit": 7198,
      "▁volunteer": 7199,
      "▁Ly": 7200,
      "▁vent": 7201,
      "▁continuing": 7202,
      "▁focuses": 7203,
      "▁Tick": 7204,
      "▁victory": 7205,
      "▁younger": 7206,
      "▁passing": 7207,
      "▁Obama": 7208,
      "▁Simply": 7209,
      "▁centers": 7210,
      "▁aside": 7211,
      "▁smell": 7212,
      "▁Bible": 7213,
      "▁blow": 7214,
      "▁convert": 7215,
      "▁cookies": 7216,
      "▁quotes": 7217,
      "▁juice": 7218,
      "▁Sher": 7219,
      "▁layout": 7220,
      "fo": 7221,
      "▁directed": 7222,
      "▁violence": 7223,
      "amber": 7224,
      "▁Manufact": 7225,
      "▁recre": 7226,
      "▁tomat": 7227,
      "▁empt": 7228,
      "▁noise": 7229,
      "ampion": 7230,
      "acular": 7231,
      "▁Motor": 7232,
      "▁legs": 7233,
      "▁Rights": 7234,
      "FA": 7235,
      "▁Pen": 7236,
      "arters": 7237,
      "▁stim": 7238,
      "▁ensures": 7239,
      "phones": 7240,
      "▁lists": 7241,
      "▁lets": 7242,
      "▁Estate": 7243,
      "then": 7244,
      "VER": 7245,
      "▁Fac": 7246,
      "▁Kim": 7247,
      "▁texture": 7248,
      "▁Rs": 7249,
      "▁refund": 7250,
      "nce": 7251,
      "▁kne": 7252,
      "▁Cloud": 7253,
      "▁saved": 7254,
      "▁inner": 7255,
      "▁deposit": 7256,
      "shire": 7257,
      "▁involves": 7258,
      "chester": 7259,
      "▁birds": 7260,
      "▁taxes": 7261,
      "▁wrap": 7262,
      "▁incredibly": 7263,
      "▁filling": 7264,
      "orce": 7265,
      "▁Division": 7266,
      "▁surprised": 7267,
      "▁Mix": 7268,
      "▁organisation": 7269,
      "▁Kent": 7270,
      "▁interact": 7271,
      "▁Cand": 7272,
      "▁recruit": 7273,
      "▁recyc": 7274,
      "fective": 7275,
      "▁checking": 7276,
      "▁suite": 7277,
      "rell": 7278,
      "▁Ur": 7279,
      "▁suggested": 7280,
      "▁errors": 7281,
      "▁functionality": 7282,
      "uling": 7283,
      "ila": 7284,
      "▁LO": 7285,
      "▁engaged": 7286,
      "▁chose": 7287,
      "▁spots": 7288,
      "▁pepper": 7289,
      "mercial": 7290,
      "▁instant": 7291,
      "▁Fact": 7292,
      "▁introduction": 7293,
      "ustin": 7294,
      "nders": 7295,
      "▁sudden": 7296,
      "▁trips": 7297,
      "▁Roman": 7298,
      "coin": 7299,
      "▁posting": 7300,
      "▁initiative": 7301,
      "▁jewelry": 7302,
      "▁applying": 7303,
      "▁prove": 7304,
      "ieving": 7305,
      "▁id": 7306,
      "▁Clin": 7307,
      "▁forever": 7308,
      "ronics": 7309,
      "aters": 7310,
      "▁primarily": 7311,
      "▁sensitive": 7312,
      "▁graphic": 7313,
      "PM": 7314,
      "▁recognition": 7315,
      "▁preferred": 7316,
      "▁SA": 7317,
      "▁male": 7318,
      "▁stored": 7319,
      "▁Natural": 7320,
      "▁Spain": 7321,
      "▁inn": 7322,
      "▁wiring": 7323,
      "▁exceed": 7324,
      "▁samples": 7325,
      "▁certificate": 7326,
      "▁hole": 7327,
      "▁overw": 7328,
      "adium": 7329,
      "▁vulner": 7330,
      "▁preparing": 7331,
      "▁storm": 7332,
      "▁Forest": 7333,
      "▁ski": 7334,
      "igate": 7335,
      "▁breast": 7336,
      "▁fairly": 7337,
      "iki": 7338,
      "dney": 7339,
      "▁ocean": 7340,
      "▁Brazil": 7341,
      "GA": 7342,
      "▁frustr": 7343,
      "cknow": 7344,
      "▁traveling": 7345,
      "▁controls": 7346,
      "▁crisis": 7347,
      "uan": 7348,
      "▁invite": 7349,
      "urious": 7350,
      "▁believes": 7351,
      "!)": 7352,
      "▁Products": 7353,
      "▁tracking": 7354,
      "▁mood": 7355,
      "▁mand": 7356,
      "▁Fall": 7357,
      "▁lowest": 7358,
      "▁till": 7359,
      "▁damaged": 7360,
      "▁hes": 7361,
      "▁lake": 7362,
      "▁split": 7363,
      "▁commonly": 7364,
      "▁painted": 7365,
      "▁sophist": 7366,
      "▁extract": 7367,
      "▁ham": 7368,
      "eras": 7369,
      "▁driven": 7370,
      "ulating": 7371,
      "▁Writ": 7372,
      "▁shift": 7373,
      "▁rely": 7374,
      "▁Nick": 7375,
      "▁heads": 7376,
      "▁narrow": 7377,
      "▁league": 7378,
      "anna": 7379,
      "▁Medicine": 7380,
      "▁Ap": 7381,
      "eding": 7382,
      "RS": 7383,
      "▁requirement": 7384,
      "iends": 7385,
      "▁Event": 7386,
      "ucky": 7387,
      "▁Regard": 7388,
      "▁Learning": 7389,
      "▁Following": 7390,
      "▁Process": 7391,
      "▁religious": 7392,
      "▁concepts": 7393,
      "▁.<": 7394,
      "▁drinking": 7395,
      "rian": 7396,
      "▁transaction": 7397,
      "▁reserved": 7398,
      "ounge": 7399,
      "▁jun": 7400,
      "▁yoga": 7401,
      "▁laugh": 7402,
      "▁visible": 7403,
      "▁Ess": 7404,
      "bing": 7405,
      "▁naturally": 7406,
      "▁regions": 7407,
      "▁spacious": 7408,
      "▁Pak": 7409,
      "▁Share": 7410,
      "▁Solutions": 7411,
      "▁electricity": 7412,
      "▁moves": 7413,
      "▁Everyone": 7414,
      "▁Employ": 7415,
      "vironments": 7416,
      "▁follows": 7417,
      "▁screw": 7418,
      "▁specialists": 7419,
      "▁seam": 7420,
      "▁prize": 7421,
      "zing": 7422,
      "▁Plant": 7423,
      "▁lifetime": 7424,
      "▁alumni": 7425,
      "▁depends": 7426,
      "▁authors": 7427,
      "nda": 7428,
      "▁hat": 7429,
      "____": 7430,
      "▁Conf": 7431,
      "▁Express": 7432,
      "▁enthusi": 7433,
      "▁contractors": 7434,
      "▁sick": 7435,
      "▁encouraged": 7436,
      "▁packed": 7437,
      "▁rubber": 7438,
      "▁unw": 7439,
      "▁brush": 7440,
      "▁inventory": 7441,
      "urse": 7442,
      "uls": 7443,
      "▁Interest": 7444,
      "▁rib": 7445,
      "▁council": 7446,
      "▁Hold": 7447,
      "▁Ray": 7448,
      "▁beneficial": 7449,
      "ludes": 7450,
      "▁bodies": 7451,
      "ints": 7452,
      "▁Sav": 7453,
      "▁referr": 7454,
      "▁attach": 7455,
      "▁mob": 7456,
      "▁Cabin": 7457,
      "▁consumption": 7458,
      "▁justice": 7459,
      "▁principles": 7460,
      "▁drain": 7461,
      "stream": 7462,
      "▁Sat": 7463,
      "▁dual": 7464,
      "▁tutorial": 7465,
      "▁coupon": 7466,
      "▁Jac": 7467,
      "▁Cult": 7468,
      "▁Avenue": 7469,
      "uster": 7470,
      "▁chances": 7471,
      "▁screens": 7472,
      "▁Pow": 7473,
      "cking": 7474,
      "▁causing": 7475,
      "▁generated": 7476,
      "ounter": 7477,
      "▁seeds": 7478,
      "▁susp": 7479,
      "▁sail": 7480,
      "▁abuse": 7481,
      "▁concerning": 7482,
      "▁creativity": 7483,
      "onym": 7484,
      "▁extend": 7485,
      "▁Swed": 7486,
      "▁Cool": 7487,
      "▁describe": 7488,
      "ventional": 7489,
      "inery": 7490,
      "▁Excell": 7491,
      "ivals": 7492,
      "ertaining": 7493,
      "▁impossible": 7494,
      "▁Square": 7495,
      "▁opens": 7496,
      "▁Create": 7497,
      "Con": 7498,
      "▁homeown": 7499,
      "▁SM": 7500,
      "▁strict": 7501,
      "▁attending": 7502,
      "▁framework": 7503,
      "'.": 7504,
      "▁nights": 7505,
      "ds": 7506,
      "▁Village": 7507,
      "▁percentage": 7508,
      "▁Pu": 7509,
      "▁speakers": 7510,
      "ndant": 7511,
      "oween": 7512,
      "sole": 7513,
      "▁expansion": 7514,
      "▁increasingly": 7515,
      "▁smartphone": 7516,
      "umbing": 7517,
      "▁tape": 7518,
      "▁Creek": 7519,
      "▁passionate": 7520,
      "▁casino": 7521,
      "▁somewhere": 7522,
      "▁attacks": 7523,
      "isa": 7524,
      "▁succeed": 7525,
      "▁mac": 7526,
      "▁trusted": 7527,
      "▁everywhere": 7528,
      "As": 7529,
      "▁pra": 7530,
      "▁ord": 7531,
      "▁Asian": 7532,
      "▁signal": 7533,
      "▁sculpt": 7534,
      "▁vert": 7535,
      "eping": 7536,
      "▁Insp": 7537,
      "being": 7538,
      "ificial": 7539,
      "▁ft": 7540,
      "▁directory": 7541,
      "▁cater": 7542,
      "▁signature": 7543,
      "quis": 7544,
      "▁doctors": 7545,
      "▁chapter": 7546,
      "▁staying": 7547,
      "▁philosoph": 7548,
      "▁loving": 7549,
      "jo": 7550,
      "▁aircraft": 7551,
      "▁CP": 7552,
      "▁arms": 7553,
      "▁Toronto": 7554,
      "▁collections": 7555,
      "▁Agency": 7556,
      "oker": 7557,
      "▁recover": 7558,
      "▁cab": 7559,
      "▁speaker": 7560,
      "▁Tay": 7561,
      "▁ultimately": 7562,
      "▁suffering": 7563,
      "▁herself": 7564,
      "▁stable": 7565,
      "▁Band": 7566,
      "▁reader": 7567,
      "anes": 7568,
      "▁tone": 7569,
      "▁bid": 7570,
      "▁facts": 7571,
      "▁Radio": 7572,
      "▁ram": 7573,
      "och": 7574,
      "▁Ms": 7575,
      "gor": 7576,
      "▁personality": 7577,
      "▁consideration": 7578,
      "annel": 7579,
      "▁forth": 7580,
      "▁discounts": 7581,
      "▁reduction": 7582,
      "▁acknow": 7583,
      "▁advent": 7584,
      "▁controlled": 7585,
      "▁Description": 7586,
      "▁gate": 7587,
      "▁refr": 7588,
      "▁Daniel": 7589,
      "page": 7590,
      "aints": 7591,
      "▁exterior": 7592,
      "▁Ice": 7593,
      "▁slowly": 7594,
      "sey": 7595,
      "sters": 7596,
      "▁divid": 7597,
      "▁indeed": 7598,
      "▁involving": 7599,
      "▁Large": 7600,
      "▁pace": 7601,
      "▁improvements": 7602,
      "▁tor": 7603,
      "apped": 7604,
      "inent": 7605,
      "▁satisfied": 7606,
      "▁dropped": 7607,
      "▁perm": 7608,
      "▁performances": 7609,
      "▁Leg": 7610,
      "▁Charles": 7611,
      "eters": 7612,
      "cycle": 7613,
      "jection": 7614,
      "▁evaluation": 7615,
      "▁environments": 7616,
      "erving": 7617,
      "▁responses": 7618,
      "star": 7619,
      "▁wra": 7620,
      "▁talented": 7621,
      "▁exploring": 7622,
      "▁Sydney": 7623,
      "▁fib": 7624,
      "ATION": 7625,
      "▁Resp": 7626,
      "▁refriger": 7627,
      "▁Isl": 7628,
      "▁Webs": 7629,
      "▁Studies": 7630,
      "AY": 7631,
      "▁Term": 7632,
      "▁Rub": 7633,
      "▁amenities": 7634,
      "▁introduce": 7635,
      "▁tournament": 7636,
      "▁division": 7637,
      "▁shell": 7638,
      "▁Cru": 7639,
      "▁Such": 7640,
      "▁scores": 7641,
      "lections": 7642,
      "▁Tech": 7643,
      "axy": 7644,
      "▁Located": 7645,
      "▁champions": 7646,
      "▁supplier": 7647,
      "If": 7648,
      "▁AL": 7649,
      "▁Working": 7650,
      "▁bab": 7651,
      "itches": 7652,
      "▁faces": 7653,
      "▁Blu": 7654,
      "otal": 7655,
      "bel": 7656,
      "abetes": 7657,
      "ht": 7658,
      "bro": 7659,
      "uclear": 7660,
      "▁roads": 7661,
      "▁Mah": 7662,
      "▁Pra": 7663,
      "▁Experience": 7664,
      "▁Crusher": 7665,
      "▁Jenn": 7666,
      "▁acquis": 7667,
      "▁Bit": 7668,
      "▁exception": 7669,
      "▁beds": 7670,
      "heast": 7671,
      "▁coal": 7672,
      "▁Emer": 7673,
      "▁reception": 7674,
      "▁casual": 7675,
      "▁prison": 7676,
      "▁Ask": 7677,
      "▁Stat": 7678,
      "▁mirror": 7679,
      "riers": 7680,
      "▁careful": 7681,
      "▁stuck": 7682,
      "▁neighb": 7683,
      "tail": 7684,
      "▁pic": 7685,
      "▁organisations": 7686,
      "▁Kat": 7687,
      "wan": 7688,
      "▁inspection": 7689,
      "▁pitch": 7690,
      "iti": 7691,
      "▁shouldn": 7692,
      "▁Own": 7693,
      "▁lesson": 7694,
      "▁Aff": 7695,
      "▁recip": 7696,
      "onder": 7697,
      "▁feelings": 7698,
      "lose": 7699,
      "riculum": 7700,
      "RL": 7701,
      "▁arrival": 7702,
      "ERE": 7703,
      "▁Front": 7704,
      "bourne": 7705,
      "▁landscap": 7706,
      "▁viewing": 7707,
      "▁displays": 7708,
      "▁tie": 7709,
      "unicip": 7710,
      "▁realized": 7711,
      "erman": 7712,
      "rame": 7713,
      "▁maps": 7714,
      "▁injured": 7715,
      "uracy": 7716,
      "▁desktop": 7717,
      "▁fabulous": 7718,
      "▁Model": 7719,
      "▁Spirit": 7720,
      "ror": 7721,
      "▁amounts": 7722,
      "▁Cro": 7723,
      "▁penal": 7724,
      "▁je": 7725,
      "▁insert": 7726,
      "▁Lat": 7727,
      "▁visits": 7728,
      "rooms": 7729,
      "▁Standard": 7730,
      "inois": 7731,
      "▁remark": 7732,
      "▁Ariz": 7733,
      "▁experiment": 7734,
      "▁stations": 7735,
      "▁DJ": 7736,
      "▁gentle": 7737,
      "EA": 7738,
      "▁alarm": 7739,
      "▁module": 7740,
      "▁CB": 7741,
      "▁bills": 7742,
      "▁emails": 7743,
      "▁expression": 7744,
      "▁Yet": 7745,
      "▁ille": 7746,
      "▁correspond": 7747,
      "▁Due": 7748,
      "▁Bes": 7749,
      "▁overwhel": 7750,
      "▁Prime": 7751,
      "ashes": 7752,
      "▁correctly": 7753,
      "ession": 7754,
      "▁engines": 7755,
      "▁<": 7756,
      "ashed": 7757,
      "lements": 7758,
      "inity": 7759,
      "▁comparison": 7760,
      "▁broadcast": 7761,
      "RC": 7762,
      "▁Kingdom": 7763,
      "▁Field": 7764,
      "▁Sound": 7765,
      "▁anniversary": 7766,
      "ali": 7767,
      "▁giant": 7768,
      "▁cm": 7769,
      "▁kil": 7770,
      "▁participation": 7771,
      "▁toilet": 7772,
      "▁rural": 7773,
      "▁independ": 7774,
      "▁Army": 7775,
      "▁marked": 7776,
      "▁maintained": 7777,
      "Press": 7778,
      "▁personnel": 7779,
      "▁matching": 7780,
      "▁instruction": 7781,
      "law": 7782,
      "▁Houston": 7783,
      "▁Roll": 7784,
      "▁gran": 7785,
      "letter": 7786,
      "▁Bh": 7787,
      "▁laser": 7788,
      "Ar": 7789,
      "▁Cry": 7790,
      "▁NC": 7791,
      "▁association": 7792,
      "▁differences": 7793,
      "▁fighting": 7794,
      "▁regardless": 7795,
      "▁operated": 7796,
      "▁Annual": 7797,
      "▁Blo": 7798,
      "▁retirement": 7799,
      "▁Irish": 7800,
      "▁closing": 7801,
      "earing": 7802,
      "▁Gro": 7803,
      "▁referred": 7804,
      "▁rust": 7805,
      "▁Golf": 7806,
      "haust": 7807,
      "▁recon": 7808,
      "▁situated": 7809,
      "making": 7810,
      "agen": 7811,
      "▁massage": 7812,
      "▁boot": 7813,
      "▁diseases": 7814,
      "▁worst": 7815,
      "▁honey": 7816,
      "cons": 7817,
      "▁Niger": 7818,
      "▁charity": 7819,
      "▁Broad": 7820,
      "▁printer": 7821,
      "▁Again": 7822,
      "▁Kh": 7823,
      "▁completion": 7824,
      "▁potentially": 7825,
      "▁Tru": 7826,
      "▁Property": 7827,
      "▁asset": 7828,
      "Le": 7829,
      "▁acts": 7830,
      "ERS": 7831,
      "▁ranging": 7832,
      "mers": 7833,
      "▁engaging": 7834,
      "Bl": 7835,
      "▁writers": 7836,
      "▁portable": 7837,
      "▁Furniture": 7838,
      "bits": 7839,
      "?\"": 7840,
      "▁Requ": 7841,
      "rat": 7842,
      "▁container": 7843,
      "▁publication": 7844,
      "▁participating": 7845,
      "▁safely": 7846,
      "▁authority": 7847,
      "▁riding": 7848,
      "▁MD": 7849,
      "▁Chall": 7850,
      "!\"": 7851,
      "▁templates": 7852,
      "▁Corporation": 7853,
      "▁Treat": 7854,
      "▁temperatures": 7855,
      "▁Resume": 7856,
      "▁customized": 7857,
      "arry": 7858,
      "▁Construction": 7859,
      "▁gaming": 7860,
      "icit": 7861,
      "▁Capital": 7862,
      "limited": 7863,
      "▁persons": 7864,
      "▁compensation": 7865,
      "▁beautifully": 7866,
      "▁transactions": 7867,
      "▁Theatre": 7868,
      "▁bact": 7869,
      "▁golden": 7870,
      "▁overlook": 7871,
      "uma": 7872,
      "▁Las": 7873,
      "▁stages": 7874,
      "foot": 7875,
      "▁designing": 7876,
      "▁unus": 7877,
      "▁Perhaps": 7878,
      "▁compact": 7879,
      "▁yield": 7880,
      "▁Comb": 7881,
      "▁Size": 7882,
      "▁dispos": 7883,
      "▁Dun": 7884,
      "▁boards": 7885,
      "▁assum": 7886,
      "ateful": 7887,
      "burgh": 7888,
      "▁compatible": 7889,
      "HA": 7890,
      "▁experim": 7891,
      "iami": 7892,
      "▁EN": 7893,
      "▁gained": 7894,
      "▁arg": 7895,
      "▁mere": 7896,
      "▁": 7897,
      "e": 7898,
      "t": 7899,
      "a": 7900,
      "o": 7901,
      "i": 7902,
      "n": 7903,
      "r": 7904,
      "s": 7905,
      "l": 7906,
      "h": 7907,
      "d": 7908,
      "c": 7909,
      "u": 7910,
      "m": 7911,
      "p": 7912,
      "f": 7913,
      "g": 7914,
      "y": 7915,
      "w": 7916,
      "b": 7917,
      ".": 7918,
      "v": 7919,
      ",": 7920,
      "k": 7921,
      "S": 7922,
      "T": 7923,
      "I": 7924,
      "A": 7925,
      "P": 7926,
      "C": 7927,
      "E": 7928,
      "R": 7929,
      "0": 7930,
      "O": 7931,
      "-": 7932,
      "M": 7933,
      "x": 7934,
      "1": 7935,
      "B": 7936,
      "W": 7937,
      "D": 7938,
      "2": 7939,
      "Y": 7940,
      "H": 7941,
      "F": 7942,
      "L": 7943,
      "’": 7944,
      "N": 7945,
      "G": 7946,
      "j": 7947,
      "'": 7948,
      "q": 7949,
      "_": 7950,
      "z": 7951,
      ">": 7952,
      "<": 7953,
      "5": 7954,
      "3": 7955,
      ")": 7956,
      "(": 7957,
      "!": 7958,
      "U": 7959,
      "4": 7960,
      "9": 7961,
      ":": 7962,
      "\"": 7963,
      "J": 7964,
      "8": 7965,
      "V": 7966,
      "6": 7967,
      "?": 7968,
      "K": 7969,
      "7": 7970,
      "/": 7971,
      "“": 7972,
      "”": 7973,
      "–": 7974,
      ";": 7975,
      "&": 7976,
      "$": 7977,
      "Q": 7978,
      "X": 7979,
      "%": 7980,
      "Z": 7981,
      "—": 7982,
      "‘": 7983,
      "*": 7984,
      "+": 7985,
      "#": 7986,
      "@": 7987,
      "[": 7988,
      "]": 7989,
      "é": 7990,
      "|": 7991,
      "®": 7992,
      "£": 7993,
      "=": 7994,
      "•": 7995,
      "о": 7996,
      "е": 7997,
      "а": 7998,
      "′": 7999
    },
    "merges": [
      [
        "▁",
        "t"
      ],
      [
        "▁",
        "a"
      ],
      [
        "i",
        "n"
      ],
      [
        "h",
        "e"
      ],
      [
        "r",
        "e"
      ],
      [
        "o",
        "n"
      ],
      [
        "e",
        "r"
      ],
      [
        "▁th",
        "e"
      ],
      [
        "▁t",
        "he"
      ],
      [
        "▁",
        "the"
      ],
      [
        "▁",
        "s"
      ],
      [
        "▁",
        "w"
      ],
      [
        "o",
        "r"
      ],
      [
        "o",
        "u"
      ],
      [
        "a",
        "t"
      ],
      [
        "n",
        "d"
      ],
      [
        "▁",
        "c"
      ],
      [
        "i",
        "t"
      ],
      [
        "e",
        "s"
      ],
      [
        "▁",
        "f"
      ],
      [
        "i",
        "s"
      ],
      [
        "in",
        "g"
      ],
      [
        "i",
        "ng"
      ],
      [
        "e",
        "n"
      ],
      [
        "▁",
        "p"
      ],
      [
        "▁",
        "b"
      ],
      [
        "▁",
        "o"
      ],
      [
        "a",
        "n"
      ],
      [
        "a",
        "l"
      ],
      [
        "e",
        "d"
      ],
      [
        "▁t",
        "o"
      ],
      [
        "▁",
        "to"
      ],
      [
        "▁an",
        "d"
      ],
      [
        "▁a",
        "nd"
      ],
      [
        "▁",
        "and"
      ],
      [
        "▁",
        "m"
      ],
      [
        "a",
        "r"
      ],
      [
        "▁i",
        "n"
      ],
      [
        "▁",
        "in"
      ],
      [
        "▁o",
        "f"
      ],
      [
        "▁",
        "of"
      ],
      [
        "▁",
        "d"
      ],
      [
        "l",
        "e"
      ],
      [
        "i",
        "c"
      ],
      [
        "o",
        "m"
      ],
      [
        "a",
        "s"
      ],
      [
        "io",
        "n"
      ],
      [
        "i",
        "on"
      ],
      [
        "▁",
        "h"
      ],
      [
        "i",
        "l"
      ],
      [
        "▁t",
        "h"
      ],
      [
        "▁",
        "th"
      ],
      [
        "▁",
        "y"
      ],
      [
        "▁",
        "T"
      ],
      [
        "▁",
        "l"
      ],
      [
        "en",
        "t"
      ],
      [
        "e",
        "nt"
      ],
      [
        "r",
        "o"
      ],
      [
        "v",
        "e"
      ],
      [
        "▁y",
        "ou"
      ],
      [
        "▁",
        "you"
      ],
      [
        "s",
        "t"
      ],
      [
        "▁",
        "e"
      ],
      [
        "▁r",
        "e"
      ],
      [
        "▁",
        "re"
      ],
      [
        "▁",
        "I"
      ],
      [
        "▁",
        "n"
      ],
      [
        "c",
        "t"
      ],
      [
        "▁",
        "g"
      ],
      [
        "e",
        "t"
      ],
      [
        "▁",
        "S"
      ],
      [
        "▁i",
        "s"
      ],
      [
        "▁",
        "is"
      ],
      [
        "▁fo",
        "r"
      ],
      [
        "▁f",
        "or"
      ],
      [
        "▁",
        "for"
      ],
      [
        "l",
        "y"
      ],
      [
        "▁",
        "A"
      ],
      [
        "▁",
        "C"
      ],
      [
        "▁o",
        "n"
      ],
      [
        "▁",
        "on"
      ],
      [
        "▁b",
        "e"
      ],
      [
        "▁",
        "be"
      ],
      [
        "i",
        "d"
      ],
      [
        "o",
        "t"
      ],
      [
        "o",
        "w"
      ],
      [
        "a",
        "y"
      ],
      [
        "o",
        "l"
      ],
      [
        "u",
        "s"
      ],
      [
        "c",
        "e"
      ],
      [
        "r",
        "a"
      ],
      [
        "i",
        "g"
      ],
      [
        "it",
        "h"
      ],
      [
        "i",
        "th"
      ],
      [
        "c",
        "h"
      ],
      [
        "i",
        "m"
      ],
      [
        "e",
        "l"
      ],
      [
        "ve",
        "r"
      ],
      [
        "v",
        "er"
      ],
      [
        "ati",
        "on"
      ],
      [
        "at",
        "ion"
      ],
      [
        "a",
        "tion"
      ],
      [
        "▁w",
        "ith"
      ],
      [
        "▁",
        "with"
      ],
      [
        "▁s",
        "t"
      ],
      [
        "▁",
        "st"
      ],
      [
        "u",
        "t"
      ],
      [
        "u",
        "r"
      ],
      [
        "▁",
        "M"
      ],
      [
        "a",
        "m"
      ],
      [
        "a",
        "d"
      ],
      [
        "i",
        "r"
      ],
      [
        "▁",
        "W"
      ],
      [
        "▁th",
        "at"
      ],
      [
        "▁",
        "P"
      ],
      [
        "▁Th",
        "e"
      ],
      [
        "▁T",
        "he"
      ],
      [
        "▁",
        "The"
      ],
      [
        "▁",
        "B"
      ],
      [
        "il",
        "l"
      ],
      [
        "i",
        "ll"
      ],
      [
        "▁i",
        "t"
      ],
      [
        "▁",
        "it"
      ],
      [
        "▁pr",
        "o"
      ],
      [
        "▁p",
        "ro"
      ],
      [
        "▁",
        "pro"
      ],
      [
        "▁a",
        "l"
      ],
      [
        "▁",
        "al"
      ],
      [
        "er",
        "s"
      ],
      [
        "e",
        "rs"
      ],
      [
        "u",
        "l"
      ],
      [
        "▁ar",
        "e"
      ],
      [
        "▁a",
        "re"
      ],
      [
        "▁",
        "are"
      ],
      [
        "▁a",
        "n"
      ],
      [
        "▁",
        "an"
      ],
      [
        "▁h",
        "e"
      ],
      [
        "▁",
        "he"
      ],
      [
        "u",
        "n"
      ],
      [
        "▁a",
        "s"
      ],
      [
        "▁",
        "as"
      ],
      [
        "g",
        "e"
      ],
      [
        "i",
        "f"
      ],
      [
        "s",
        "e"
      ],
      [
        "k",
        "e"
      ],
      [
        "ou",
        "r"
      ],
      [
        "o",
        "ur"
      ],
      [
        "▁",
        "H"
      ],
      [
        "▁",
        "D"
      ],
      [
        "ou",
        "t"
      ],
      [
        "o",
        "ut"
      ],
      [
        "▁w",
        "h"
      ],
      [
        "▁",
        "wh"
      ],
      [
        "o",
        "o"
      ],
      [
        "▁",
        "F"
      ],
      [
        "▁h",
        "a"
      ],
      [
        "▁",
        "ha"
      ],
      [
        "te",
        "r"
      ],
      [
        "t",
        "er"
      ],
      [
        "▁w",
        "e"
      ],
      [
        "▁",
        "we"
      ],
      [
        "▁you",
        "r"
      ],
      [
        "▁y",
        "our"
      ],
      [
        "es",
        "s"
      ],
      [
        "e",
        "ss"
      ],
      [
        "▁co",
        "m"
      ],
      [
        "▁c",
        "om"
      ],
      [
        "▁",
        "com"
      ],
      [
        "▁co",
        "n"
      ],
      [
        "▁c",
        "on"
      ],
      [
        "▁",
        "con"
      ],
      [
        "▁o",
        "r"
      ],
      [
        "▁",
        "or"
      ],
      [
        "p",
        "p"
      ],
      [
        "es",
        "t"
      ],
      [
        "e",
        "st"
      ],
      [
        "at",
        "e"
      ],
      [
        "a",
        "te"
      ],
      [
        "a",
        "b"
      ],
      [
        "▁a",
        "t"
      ],
      [
        "▁",
        "at"
      ],
      [
        "men",
        "t"
      ],
      [
        "me",
        "nt"
      ],
      [
        "m",
        "ent"
      ],
      [
        "c",
        "k"
      ],
      [
        "▁",
        "R"
      ],
      [
        "he",
        "r"
      ],
      [
        "h",
        "er"
      ],
      [
        "▁f",
        "r"
      ],
      [
        "▁",
        "fr"
      ],
      [
        "or",
        "e"
      ],
      [
        "o",
        "re"
      ],
      [
        "▁n",
        "e"
      ],
      [
        "▁",
        "ne"
      ],
      [
        "▁",
        "L"
      ],
      [
        "▁e",
        "x"
      ],
      [
        "▁",
        "ex"
      ],
      [
        "ig",
        "h"
      ],
      [
        "i",
        "gh"
      ],
      [
        "q",
        "u"
      ],
      [
        "ur",
        "e"
      ],
      [
        "u",
        "re"
      ],
      [
        "or",
        "t"
      ],
      [
        "O",
        "R"
      ],
      [
        "S",
        "T"
      ],
      [
        "▁s",
        "e"
      ],
      [
        "▁",
        "se"
      ],
      [
        "S",
        "E"
      ],
      [
        "is",
        "t"
      ],
      [
        "i",
        "st"
      ],
      [
        "iv",
        "e"
      ],
      [
        "i",
        "ve"
      ],
      [
        "p",
        "e"
      ],
      [
        "it",
        "y"
      ],
      [
        "i",
        "ty"
      ],
      [
        "▁",
        "v"
      ],
      [
        "▁",
        "G"
      ],
      [
        "OR",
        "Y"
      ],
      [
        "SE",
        "P"
      ],
      [
        "ST",
        "ORY"
      ],
      [
        "▁",
        "E"
      ],
      [
        "an",
        "t"
      ],
      [
        "a",
        "nt"
      ],
      [
        "▁d",
        "e"
      ],
      [
        "▁",
        "de"
      ],
      [
        "l",
        "d"
      ],
      [
        "▁c",
        "an"
      ],
      [
        "▁",
        "can"
      ],
      [
        "▁",
        "N"
      ],
      [
        "ar",
        "t"
      ],
      [
        "us",
        "t"
      ],
      [
        "u",
        "st"
      ],
      [
        "ie",
        "s"
      ],
      [
        "i",
        "es"
      ],
      [
        "▁",
        "O"
      ],
      [
        "u",
        "m"
      ],
      [
        "▁ha",
        "ve"
      ],
      [
        "▁h",
        "ave"
      ],
      [
        "▁fro",
        "m"
      ],
      [
        "▁fr",
        "om"
      ],
      [
        "▁f",
        "rom"
      ],
      [
        "o",
        "p"
      ],
      [
        "▁w",
        "ill"
      ],
      [
        "▁u",
        "s"
      ],
      [
        "▁",
        "us"
      ],
      [
        "▁",
        "r"
      ],
      [
        "e",
        "m"
      ],
      [
        "▁th",
        "is"
      ],
      [
        "ai",
        "n"
      ],
      [
        "a",
        "in"
      ],
      [
        "▁s",
        "h"
      ],
      [
        "▁",
        "sh"
      ],
      [
        "▁c",
        "h"
      ],
      [
        "▁",
        "ch"
      ],
      [
        "i",
        "v"
      ],
      [
        "▁b",
        "y"
      ],
      [
        "▁",
        "by"
      ],
      [
        "n",
        "t"
      ],
      [
        ".",
        "<"
      ],
      [
        "an",
        "d"
      ],
      [
        "a",
        "nd"
      ],
      [
        "al",
        "l"
      ],
      [
        "a",
        "ll"
      ],
      [
        "o",
        "s"
      ],
      [
        "▁",
        "("
      ],
      [
        "▁wa",
        "s"
      ],
      [
        "▁w",
        "as"
      ],
      [
        "u",
        "p"
      ],
      [
        "om",
        "e"
      ],
      [
        "o",
        "me"
      ],
      [
        "t",
        "h"
      ],
      [
        "igh",
        "t"
      ],
      [
        "ig",
        "ht"
      ],
      [
        "i",
        "e"
      ],
      [
        "ar",
        "d"
      ],
      [
        "a",
        "rd"
      ],
      [
        "u",
        "d"
      ],
      [
        "ia",
        "l"
      ],
      [
        "i",
        "al"
      ],
      [
        "▁l",
        "e"
      ],
      [
        "▁",
        "le"
      ],
      [
        "re",
        "s"
      ],
      [
        "r",
        "es"
      ],
      [
        "▁s",
        "u"
      ],
      [
        "▁",
        "su"
      ],
      [
        "id",
        "e"
      ],
      [
        "i",
        "de"
      ],
      [
        "▁no",
        "t"
      ],
      [
        "▁n",
        "ot"
      ],
      [
        "▁",
        "not"
      ],
      [
        "os",
        "t"
      ],
      [
        "o",
        "st"
      ],
      [
        "▁w",
        "or"
      ],
      [
        "▁",
        "wor"
      ],
      [
        "▁p",
        "l"
      ],
      [
        "▁",
        "pl"
      ],
      [
        "▁al",
        "l"
      ],
      [
        "▁a",
        "ll"
      ],
      [
        "▁",
        "all"
      ],
      [
        "i",
        "p"
      ],
      [
        "▁T",
        "h"
      ],
      [
        "▁",
        "Th"
      ],
      [
        "t",
        "e"
      ],
      [
        "ro",
        "u"
      ],
      [
        "r",
        "ou"
      ],
      [
        "o",
        "d"
      ],
      [
        "▁a",
        "b"
      ],
      [
        "▁",
        "ab"
      ],
      [
        "o",
        "c"
      ],
      [
        "in",
        "e"
      ],
      [
        "i",
        "ne"
      ],
      [
        "ag",
        "e"
      ],
      [
        "a",
        "ge"
      ],
      [
        "ic",
        "e"
      ],
      [
        "i",
        "ce"
      ],
      [
        "a",
        "g"
      ],
      [
        "▁com",
        "p"
      ],
      [
        "▁co",
        "mp"
      ],
      [
        "ar",
        "e"
      ],
      [
        "a",
        "re"
      ],
      [
        "as",
        "t"
      ],
      [
        "a",
        "st"
      ],
      [
        "g",
        "h"
      ],
      [
        "pe",
        "r"
      ],
      [
        "p",
        "er"
      ],
      [
        "a",
        "k"
      ],
      [
        "e",
        "ar"
      ],
      [
        "▁",
        "j"
      ],
      [
        "▁ha",
        "s"
      ],
      [
        "▁h",
        "as"
      ],
      [
        "▁o",
        "ur"
      ],
      [
        "▁",
        "our"
      ],
      [
        "f",
        "e"
      ],
      [
        "el",
        "l"
      ],
      [
        "e",
        "ll"
      ],
      [
        "▁",
        "J"
      ],
      [
        "oul",
        "d"
      ],
      [
        "ou",
        "ld"
      ],
      [
        "▁a",
        "d"
      ],
      [
        "▁",
        "ad"
      ],
      [
        "▁",
        "k"
      ],
      [
        "▁d",
        "o"
      ],
      [
        "▁",
        "do"
      ],
      [
        "ab",
        "le"
      ],
      [
        "a",
        "ble"
      ],
      [
        "oo",
        "k"
      ],
      [
        "o",
        "ok"
      ],
      [
        "ct",
        "ion"
      ],
      [
        "c",
        "tion"
      ],
      [
        "i",
        "b"
      ],
      [
        "ak",
        "e"
      ],
      [
        "a",
        "ke"
      ],
      [
        "▁I",
        "n"
      ],
      [
        "▁",
        "In"
      ],
      [
        "▁e",
        "n"
      ],
      [
        "▁",
        "en"
      ],
      [
        "a",
        "c"
      ],
      [
        "l",
        "o"
      ],
      [
        "in",
        "d"
      ],
      [
        "i",
        "nd"
      ],
      [
        "▁",
        "U"
      ],
      [
        "ac",
        "k"
      ],
      [
        "a",
        "ck"
      ],
      [
        "ir",
        "e"
      ],
      [
        "i",
        "re"
      ],
      [
        "it",
        "e"
      ],
      [
        "i",
        "te"
      ],
      [
        "all",
        "y"
      ],
      [
        "al",
        "ly"
      ],
      [
        "▁wh",
        "e"
      ],
      [
        "▁w",
        "he"
      ],
      [
        "r",
        "y"
      ],
      [
        "▁u",
        "p"
      ],
      [
        "▁",
        "up"
      ],
      [
        "▁o",
        "ut"
      ],
      [
        "▁",
        "out"
      ],
      [
        "▁",
        "Y"
      ],
      [
        "on",
        "e"
      ],
      [
        "o",
        "ne"
      ],
      [
        "▁s",
        "o"
      ],
      [
        "▁",
        "so"
      ],
      [
        "ate",
        "d"
      ],
      [
        "at",
        "ed"
      ],
      [
        "a",
        "ted"
      ],
      [
        "ver",
        "y"
      ],
      [
        "ve",
        "ry"
      ],
      [
        "v",
        "ery"
      ],
      [
        "the",
        "r"
      ],
      [
        "th",
        "er"
      ],
      [
        "t",
        "her"
      ],
      [
        "d",
        "u"
      ],
      [
        "i",
        "z"
      ],
      [
        "▁m",
        "e"
      ],
      [
        "▁",
        "me"
      ],
      [
        "ic",
        "h"
      ],
      [
        "i",
        "ch"
      ],
      [
        "ai",
        "l"
      ],
      [
        "a",
        "il"
      ],
      [
        "c",
        "c"
      ],
      [
        "▁mor",
        "e"
      ],
      [
        "▁mo",
        "re"
      ],
      [
        "▁m",
        "ore"
      ],
      [
        "▁",
        "more"
      ],
      [
        "oo",
        "d"
      ],
      [
        "o",
        "od"
      ],
      [
        "▁the",
        "ir"
      ],
      [
        "▁bu",
        "t"
      ],
      [
        "▁b",
        "ut"
      ],
      [
        "▁",
        "but"
      ],
      [
        "im",
        "e"
      ],
      [
        "i",
        "me"
      ],
      [
        "fo",
        "r"
      ],
      [
        "f",
        "or"
      ],
      [
        "a",
        "p"
      ],
      [
        "s",
        "o"
      ],
      [
        "on",
        "g"
      ],
      [
        "o",
        "ng"
      ],
      [
        "▁W",
        "e"
      ],
      [
        "▁",
        "We"
      ],
      [
        "▁t",
        "e"
      ],
      [
        "▁",
        "te"
      ],
      [
        "▁i",
        "m"
      ],
      [
        "▁",
        "im"
      ],
      [
        "▁wor",
        "k"
      ],
      [
        "▁w",
        "ork"
      ],
      [
        "▁",
        "work"
      ],
      [
        "ig",
        "n"
      ],
      [
        "i",
        "gn"
      ],
      [
        "ou",
        "s"
      ],
      [
        "o",
        "us"
      ],
      [
        "▁c",
        "l"
      ],
      [
        "▁",
        "cl"
      ],
      [
        "anc",
        "e"
      ],
      [
        "an",
        "ce"
      ],
      [
        "a",
        "nce"
      ],
      [
        "▁con",
        "t"
      ],
      [
        "▁co",
        "nt"
      ],
      [
        "▁c",
        "ont"
      ],
      [
        "▁",
        "cont"
      ],
      [
        "▁on",
        "e"
      ],
      [
        "▁o",
        "ne"
      ],
      [
        "▁",
        "one"
      ],
      [
        "l",
        "l"
      ],
      [
        "er",
        "v"
      ],
      [
        "an",
        "s"
      ],
      [
        "a",
        "ns"
      ],
      [
        "ion",
        "s"
      ],
      [
        "io",
        "ns"
      ],
      [
        "i",
        "ons"
      ],
      [
        "o",
        "g"
      ],
      [
        "as",
        "e"
      ],
      [
        "a",
        "se"
      ],
      [
        "▁",
        "K"
      ],
      [
        "▁p",
        "r"
      ],
      [
        "▁",
        "pr"
      ],
      [
        "▁in",
        "c"
      ],
      [
        "▁",
        "inc"
      ],
      [
        "▁m",
        "an"
      ],
      [
        "▁",
        "man"
      ],
      [
        "re",
        "at"
      ],
      [
        "ac",
        "h"
      ],
      [
        "a",
        "ch"
      ],
      [
        "▁",
        "qu"
      ],
      [
        "▁of",
        "f"
      ],
      [
        "▁o",
        "ff"
      ],
      [
        "▁",
        "off"
      ],
      [
        "ac",
        "t"
      ],
      [
        "a",
        "ct"
      ],
      [
        "ac",
        "e"
      ],
      [
        "a",
        "ce"
      ],
      [
        "▁ap",
        "p"
      ],
      [
        "▁a",
        "pp"
      ],
      [
        "▁",
        "app"
      ],
      [
        "re",
        "d"
      ],
      [
        "r",
        "ed"
      ],
      [
        "ik",
        "e"
      ],
      [
        "i",
        "ke"
      ],
      [
        "i",
        "a"
      ],
      [
        "▁the",
        "y"
      ],
      [
        "▁th",
        "ey"
      ],
      [
        "▁m",
        "y"
      ],
      [
        "▁",
        "my"
      ],
      [
        "▁f",
        "e"
      ],
      [
        "▁",
        "fe"
      ],
      [
        "▁u",
        "n"
      ],
      [
        "▁",
        "un"
      ],
      [
        "▁re",
        "s"
      ],
      [
        "▁r",
        "es"
      ],
      [
        "▁",
        "res"
      ],
      [
        "▁ab",
        "out"
      ],
      [
        "e",
        "p"
      ],
      [
        "▁I",
        "t"
      ],
      [
        "▁",
        "It"
      ],
      [
        "ic",
        "k"
      ],
      [
        "i",
        "ck"
      ],
      [
        "▁",
        "V"
      ],
      [
        "ul",
        "t"
      ],
      [
        "▁Th",
        "is"
      ],
      [
        "▁",
        "This"
      ],
      [
        "▁S",
        "t"
      ],
      [
        "▁",
        "St"
      ],
      [
        "re",
        "e"
      ],
      [
        "r",
        "ee"
      ],
      [
        ".",
        "."
      ],
      [
        "ation",
        "s"
      ],
      [
        "ati",
        "ons"
      ],
      [
        "at",
        "ions"
      ],
      [
        "as",
        "s"
      ],
      [
        "a",
        "ss"
      ],
      [
        "▁al",
        "so"
      ],
      [
        "▁pe",
        "r"
      ],
      [
        "▁p",
        "er"
      ],
      [
        "▁",
        "per"
      ],
      [
        "ar",
        "k"
      ],
      [
        "▁s",
        "p"
      ],
      [
        "▁",
        "sp"
      ],
      [
        "▁wh",
        "ich"
      ],
      [
        "▁",
        "which"
      ],
      [
        "u",
        "e"
      ],
      [
        "un",
        "d"
      ],
      [
        "u",
        "nd"
      ],
      [
        "for",
        "m"
      ],
      [
        "f",
        "orm"
      ],
      [
        "be",
        "r"
      ],
      [
        "b",
        "er"
      ],
      [
        "▁t",
        "r"
      ],
      [
        "▁",
        "tr"
      ],
      [
        "▁ne",
        "w"
      ],
      [
        "▁n",
        "ew"
      ],
      [
        "▁",
        "new"
      ],
      [
        "n",
        "e"
      ],
      [
        "ve",
        "l"
      ],
      [
        "v",
        "el"
      ],
      [
        "il",
        "e"
      ],
      [
        "i",
        "le"
      ],
      [
        "▁y",
        "ear"
      ],
      [
        "▁",
        "year"
      ],
      [
        "▁tim",
        "e"
      ],
      [
        "▁t",
        "ime"
      ],
      [
        "▁",
        "time"
      ],
      [
        "p",
        "t"
      ],
      [
        "ent",
        "s"
      ],
      [
        "en",
        "ts"
      ],
      [
        "▁s",
        "a"
      ],
      [
        "▁ge",
        "t"
      ],
      [
        "▁g",
        "et"
      ],
      [
        "▁",
        "get"
      ],
      [
        "f",
        "f"
      ],
      [
        "▁wh",
        "o"
      ],
      [
        "oun",
        "t"
      ],
      [
        "ou",
        "nt"
      ],
      [
        "o",
        "unt"
      ],
      [
        "▁g",
        "o"
      ],
      [
        "▁",
        "go"
      ],
      [
        "▁in",
        "t"
      ],
      [
        "▁i",
        "nt"
      ],
      [
        "▁",
        "int"
      ],
      [
        "u",
        "b"
      ],
      [
        "am",
        "e"
      ],
      [
        "a",
        "me"
      ],
      [
        "ar",
        "y"
      ],
      [
        "a",
        "ry"
      ],
      [
        "▁an",
        "y"
      ],
      [
        "▁a",
        "ny"
      ],
      [
        "▁",
        "any"
      ],
      [
        "ov",
        "e"
      ],
      [
        "o",
        "ve"
      ],
      [
        "▁C",
        "h"
      ],
      [
        "▁",
        "Ch"
      ],
      [
        "ay",
        "s"
      ],
      [
        "a",
        "ys"
      ],
      [
        "▁o",
        "ther"
      ],
      [
        "▁",
        "other"
      ],
      [
        "▁par",
        "t"
      ],
      [
        "▁p",
        "art"
      ],
      [
        "▁",
        "part"
      ],
      [
        "p",
        "l"
      ],
      [
        "ica",
        "l"
      ],
      [
        "ic",
        "al"
      ],
      [
        "▁tr",
        "a"
      ],
      [
        "▁t",
        "ra"
      ],
      [
        "▁",
        "tra"
      ],
      [
        "en",
        "ce"
      ],
      [
        "e",
        "nce"
      ],
      [
        "ow",
        "n"
      ],
      [
        "o",
        "wn"
      ],
      [
        "▁e",
        "v"
      ],
      [
        "▁",
        "ev"
      ],
      [
        "iti",
        "on"
      ],
      [
        "it",
        "ion"
      ],
      [
        "i",
        "tion"
      ],
      [
        "▁ne",
        "ed"
      ],
      [
        "▁n",
        "eed"
      ],
      [
        "or",
        "s"
      ],
      [
        "o",
        "rs"
      ],
      [
        "▁di",
        "s"
      ],
      [
        "▁d",
        "is"
      ],
      [
        "ing",
        "s"
      ],
      [
        "in",
        "gs"
      ],
[...]
