<unk>	0
<s>	0
</s>	0
▁t	-0
▁a	-1
in	-2
he	-3
re	-4
on	-5
er	-6
▁the	-7
▁s	-8
▁w	-9
or	-10
ou	-11
at	-12
nd	-13
▁c	-14
it	-15
es	-16
▁f	-17
is	-18
ing	-19
en	-20
▁p	-21
▁b	-22
▁o	-23
an	-24
al	-25
ed	-26
▁to	-27
▁and	-28
▁m	-29
ar	-30
▁in	-31
▁of	-32
▁d	-33
le	-34
ic	-35
om	-36
as	-37
ion	-38
▁h	-39
il	-40
▁th	-41
▁y	-42
▁T	-43
▁l	-44
ent	-45
ro	-46
ve	-47
▁you	-48
st	-49
▁e	-50
▁re	-51
▁I	-52
▁n	-53
ct	-54
▁g	-55
et	-56
▁S	-57
▁is	-58
▁for	-59
ly	-60
▁A	-61
▁C	-62
▁on	-63
▁be	-64
id	-65
ot	-66
ow	-67
ay	-68
ol	-69
us	-70
ce	-71
ra	-72
ig	-73
ith	-74
ch	-75
im	-76
el	-77
ver	-78
ation	-79
▁with	-80
▁st	-81
ut	-82
ur	-83
▁M	-84
am	-85
ad	-86
ir	-87
▁W	-88
▁that	-89
▁P	-90
▁The	-91
▁B	-92
ill	-93
▁it	-94
▁pro	-95
▁al	-96
ers	-97
ul	-98
▁are	-99
▁an	-100
▁he	-101
un	-102
▁as	-103
ge	-104
if	-105
se	-106
ke	-107
our	-108
▁H	-109
▁D	-110
out	-111
▁wh	-112
oo	-113
▁F	-114
▁ha	-115
ter	-116
▁we	-117
▁your	-118
ess	-119
▁com	-120
▁con	-121
▁or	-122
pp	-123
est	-124
ate	-125
ab	-126
▁at	-127
ment	-128
ck	-129
▁R	-130
her	-131
▁fr	-132
ore	-133
▁ne	-134
▁L	-135
▁ex	-136
igh	-137
qu	-138
ure	-139
ort	-140
OR	-141
ST	-142
▁se	-143
SE	-144
ist	-145
ive	-146
pe	-147
ity	-148
▁v	-149
▁G	-150
ORY	-151
SEP	-152
STORY	-153
▁E	-154
ant	-155
▁de	-156
ld	-157
▁can	-158
▁N	-159
art	-160
ust	-161
ies	-162
▁O	-163
um	-164
▁have	-165
▁from	-166
op	-167
▁will	-168
▁us	-169
▁r	-170
em	-171
▁this	-172
ain	-173
▁sh	-174
▁ch	-175
iv	-176
▁by	-177
nt	-178
.<	-179
and	-180
all	-181
os	-182
▁(	-183
▁was	-184
up	-185
ome	-186
th	-187
ight	-188
ie	-189
ard	-190
ud	-191
ial	-192
▁le	-193
res	-194
▁su	-195
ide	-196
▁not	-197
ost	-198
▁wor	-199
▁pl	-200
▁all	-201
ip	-202
▁Th	-203
te	-204
rou	-205
od	-206
▁ab	-207
oc	-208
ine	-209
age	-210
ice	-211
ag	-212
▁comp	-213
are	-214
ast	-215
gh	-216
per	-217
ak	-218
ear	-219
▁j	-220
▁has	-221
▁our	-222
fe	-223
ell	-224
▁J	-225
ould	-226
▁ad	-227
▁k	-228
▁do	-229
able	-230
ook	-231
ction	-232
ib	-233
ake	-234
▁In	-235
▁en	-236
ac	-237
lo	-238
ind	-239
▁U	-240
ack	-241
ire	-242
ite	-243
ally	-244
▁whe	-245
ry	-246
▁up	-247
▁out	-248
▁Y	-249
one	-250
▁so	-251
ated	-252
very	-253
ther	-254
du	-255
iz	-256
▁me	-257
ich	-258
ail	-259
cc	-260
▁more	-261
ood	-262
▁their	-263
▁but	-264
ime	-265
for	-266
ap	-267
so	-268
ong	-269
▁We	-270
▁te	-271
▁im	-272
▁work	-273
ign	-274
ous	-275
▁cl	-276
ance	-277
▁cont	-278
▁one	-279
ll	-280
erv	-281
ans	-282
ions	-283
og	-284
ase	-285
▁K	-286
▁pr	-287
▁inc	-288
▁man	-289
reat	-290
ach	-291
▁qu	-292
▁off	-293
act	-294
ace	-295
▁app	-296
red	-297
ike	-298
ia	-299
▁they	-300
▁my	-301
▁fe	-302
▁un	-303
▁res	-304
▁about	-305
ep	-306
▁It	-307
ick	-308
▁V	-309
ult	-310
▁This	-311
▁St	-312
ree	-313
..	-314
ations	-315
ass	-316
▁also	-317
▁per	-318
ark	-319
▁sp	-320
▁which	-321
ue	-322
und	-323
form	-324
ber	-325
▁tr	-326
▁new	-327
ne	-328
vel	-329
ile	-330
▁year	-331
▁time	-332
pt	-333
ents	-334
▁sa	-335
▁get	-336
ff	-337
▁who	-338
ount	-339
▁go	-340
▁int	-341
ub	-342
ame	-343
ary	-344
▁any	-345
ove	-346
▁Ch	-347
ays	-348
▁other	-349
▁part	-350
pl	-351
ical	-352
▁tra	-353
ence	-354
own	-355
▁ev	-356
ition	-357
▁need	-358
ors	-359
▁dis	-360
ings	-361
▁like	-362
ond	-363
▁ro	-364
▁some	-365
av	-366
▁"	-367
ild	-368
▁ar	-369
▁over	-370
ress	-371
▁spe	-372
▁sc	-373
▁rec	-374
▁them	-375
▁des	-376
▁“	-377
▁been	-378
port	-379
▁his	-380
ens	-381
▁prov	-382
low	-383
▁pre	-384
lp	-385
▁kn	-386
▁acc	-387
int	-388
▁serv	-389
ish	-390
▁when	-391
wn	-392
ru	-393
ater	-394
ink	-395
▁pe	-396
▁-	-397
ound	-398
▁col	-399
▁help	-400
▁if	-401
rough	-402
ren	-403
▁You	-404
lud	-405
▁ag	-406
▁comm	-407
ord	-408
▁there	-409
vers	-410
▁am	-411
▁what	-412
▁than	-413
▁its	-414
ov	-415
▁just	-416
▁He	-417
ough	-418
▁how	-419
ning	-420
▁make	-421
▁add	-422
ices	-423
cial	-424
▁produ	-425
ool	-426
irst	-427
ram	-428
ang	-429
▁into	-430
▁look	-431
ory	-432
▁would	-433
▁includ	-434
old	-435
▁If	-436
tern	-437
▁bu	-438
ft	-439
▁Wh	-440
cts	-441
▁af	-442
ful	-443
▁use	-444
ual	-445
mer	-446
ces	-447
rent	-448
lic	-449
ments	-450
itt	-451
▁her	-452
ople	-453
ian	-454
▁through	-455
▁most	-456
▁bec	-457
ob	-458
use	-459
day	-460
▁ind	-461
▁exper	-462
▁tw	-463
hed	-464
▁were	-465
les	-466
ates	-467
▁well	-468
ons	-469
ose	-470
ious	-471
▁know	-472
round	-473
▁ph	-474
▁Re	-475
je	-476
iness	-477
▁every	-478
▁had	-479
pport	-480
▁first	-481
ities	-482
▁co	-483
▁–	-484
▁may	-485
▁people	-486
▁no	-487
ri	-488
▁only	-489
ating	-490
ks	-491
ade	-492
▁und	-493
▁bus	-494
ise	-495
hen	-496
▁em	-497
▁want	-498
▁As	-499
iew	-500
▁back	-501
ert	-502
▁bet	-503
▁see	-504
ple	-505
xt	-506
ict	-507
oth	-508
▁cons	-509
oy	-510
▁best	-511
ange	-512
ph	-513
ures	-514
we	-515
ily	-516
any	-517
lect	-518
▁design	-519
▁these	-520
ific	-521
ced	-522
▁Ne	-523
ont	-524
▁reg	-525
▁sy	-526
▁ra	-527
als	-528
▁great	-529
urn	-530
▁stud	-531
row	-532
).	-533
▁very	-534
▁loc	-535
fect	-536
cess	-537
▁many	-538
▁sm	-539
ible	-540
ife	-541
▁ke	-542
▁home	-543
▁under	-544
ience	-545
▁For	-546
▁two	-547
▁dif	-548
▁years	-549
ting	-550
▁high	-551
▁find	-552
iss	-553
▁act	-554
▁inv	-555
ased	-556
▁inform	-557
air	-558
get	-559
▁good	-560
ational	-561
ility	-562
ause	-563
bs	-564
▁car	-565
▁rel	-566
▁&	-567
▁ent	-568
ied	-569
▁she	-570
ts	-571
▁av	-572
▁business	-573
velop	-574
▁fin	-575
▁inst	-576
aking	-577
▁ins	-578
▁way	-579
▁own	-580
▁set	-581
uring	-582
▁Com	-583
erson	-584
ath	-585
ward	-586
stem	-587
▁dec	-588
fore	-589
▁Un	-590
aw	-591
▁rem	-592
▁ac	-593
▁now	-594
▁br	-595
oss	-596
▁start	-597
ble	-598
ract	-599
olog	-600
▁gu	-601
▁Pro	-602
ular	-603
com	-604
ustom	-605
▁An	-606
▁ass	-607
▁where	-608
uch	-609
▁play	-610
▁day	-611
hes	-612
eth	-613
line	-614
ics	-615
▁after	-616
oint	-617
▁said	-618
▁sec	-619
▁show	-620
▁even	-621
▁should	-622
its	-623
hip	-624
▁requ	-625
ality	-626
ty	-627
▁then	-628
▁che	-629
▁min	-630
▁imp	-631
ys	-632
▁fam	-633
▁down	-634
▁information	-635
nds	-636
▁De	-637
▁fl	-638
chn	-639
arket	-640
▁cre	-641
▁right	-642
ork	-643
gan	-644
ient	-645
▁take	-646
▁vis	-647
elf	-648
arch	-649
ull	-650
▁provid	-651
lease	-652
alth	-653
▁And	-654
ject	-655
▁here	-656
ative	-657
ash	-658
chool	-659
erm	-660
▁develop	-661
rit	-662
▁could	-663
ident	-664
cy	-665
io	-666
▁Al	-667
ix	-668
▁att	-669
ited	-670
▁don	-671
▁custom	-672
▁read	-673
▁wee	-674
▁mon	-675
gram	-676
▁bl	-677
pect	-678
▁Sh	-679
amp	-680
ale	-681
▁mod	-682
ower	-683
▁long	-684
ax	-685
▁diffe	-686
▁used	-687
▁such	-688
ank	-689
▁Se	-690
▁much	-691
ner	-692
me	-693
▁$	-694
▁call	-695
▁made	-696
▁inte	-697
▁sur	-698
▁Be	-699
▁avail	-700
▁system	-701
▁comple	-702
▁str	-703
▁person	-704
ener	-705
▁eas	-706
ize	-707
▁disc	-708
▁too	-709
▁sim	-710
▁sk	-711
▁world	-712
▁support	-713
az	-714
ven	-715
▁art	-716
),	-717
ages	-718
ouse	-719
ock	-720
▁free	-721
▁pres	-722
▁team	-723
pen	-724
ric	-725
▁Cl	-726
▁trans	-727
▁cur	-728
land	-729
iving	-730
ional	-731
▁mem	-732
ives	-733
▁det	-734
arm	-735
rest	-736
arn	-737
▁life	-738
ues	-739
▁There	-740
▁before	-741
▁love	-742
▁post	-743
▁med	-744
pr	-745
▁prof	-746
▁adv	-747
olut	-748
▁available	-749
▁New	-750
▁each	-751
▁care	-752
▁bo	-753
atch	-754
other	-755
▁num	-756
▁Fr	-757
▁form	-758
ng	-759
way	-760
▁because	-761
ets	-762
unity	-763
der	-764
▁Ar	-765
ros	-766
led	-767
...	-768
▁last	-769
▁market	-770
▁service	-771
▁techn	-772
ines	-773
▁while	-774
ave	-775
▁being	-776
▁around	-777
▁lead	-778
akes	-779
▁del	-780
oun	-781
▁top	-782
▁list	-783
▁cle	-784
▁ed	-785
alk	-786
▁does	-787
▁rep	-788
▁place	-789
▁.	-790
▁program	-791
▁How	-792
▁those	-793
ivers	-794
▁child	-795
ason	-796
ollow	-797
▁Ad	-798
ince	-799
ier	-800
▁On	-801
ining	-802
▁gra	-803
▁Our	-804
▁offer	-805
▁fun	-806
▁book	-807
ug	-808
▁think	-809
▁process	-810
▁dr	-811
▁ser	-812
ata	-813
irect	-814
iqu	-815
▁different	-816
▁end	-817
▁company	-818
de	-819
els	-820
▁again	-821
ather	-822
▁inter	-823
ually	-824
ior	-825
▁Le	-826
ins	-827
iet	-828
▁aut	-829
rib	-830
▁ret	-831
roup	-832
ene	-833
ctions	-834
▁experience	-835
ways	-836
▁did	-837
▁services	-838
▁using	-839
▁lar	-840
▁sub	-841
▁To	-842
▁pur	-843
▁cour	-844
read	-845
▁opt	-846
ving	-847
cept	-848
▁pub	-849
▁count	-850
▁var	-851
ature	-852
view	-853
▁both	-854
▁ext	-855
▁All	-856
▁hand	-857
aut	-858
▁provide	-859
▁So	-860
▁Pl	-861
▁found	-862
▁But	-863
ness	-864
ired	-865
aint	-866
ars	-867
▁import	-868
▁build	-869
▁pol	-870
▁plan	-871
▁They	-872
▁ide	-873
▁With	-874
ton	-875
ized	-876
imes	-877
▁water	-878
▁char	-879
▁really	-880
▁run	-881
▁sign	-882
▁exp	-883
ants	-884
au	-885
iel	-886
▁health	-887
ology	-888
▁val	-889
▁follow	-890
▁including	-891
▁family	-892
▁quality	-893
ween	-894
▁Te	-895
▁keep	-896
▁month	-897
▁open	-898
▁What	-899
▁som	-900
▁ty	-901
▁Ex	-902
ery	-903
▁small	-904
gg	-905
ital	-906
▁special	-907
ittle	-908
▁organ	-909
ved	-910
▁lot	-911
ware	-912
ross	-913
▁allow	-914
▁still	-915
less	-916
!<	-917
orth	-918
▁sure	-919
▁fil	-920
▁cent	-921
bers	-922
▁few	-923
▁between	-924
▁same	-925
co	-926
ern	-927
▁happ	-928
ah	-929
▁appro	-930
▁going	-931
▁pat	-932
▁At	-933
▁Q	-934
ients	-935
▁school	-936
▁frie	-937
▁cor	-938
ural	-939
reen	-940
▁area	-941
▁feel	-942
▁When	-943
▁stand	-944
joy	-945
▁bra	-946
▁real	-947
▁online	-948
▁poss	-949
▁result	-950
▁always	-951
uc	-952
be	-953
▁him	-954
▁class	-955
▁ve	-956
▁webs	-957
▁rest	-958
ien	-959
▁cost	-960
room	-961
▁perform	-962
▁during	-963
▁phot	-964
▁ref	-965
▁full	-966
ished	-967
▁light	-968
ling	-969
▁three	-970
▁rece	-971
▁gener	-972
▁proper	-973
▁though	-974
▁come	-975
ms	-976
▁interest	-977
ute	-978
▁Af	-979
ield	-980
ists	-981
gy	-982
▁cap	-983
▁partic	-984
iver	-985
load	-986
stand	-987
▁access	-988
▁Col	-989
▁Sc	-990
ik	-991
▁number	-992
▁profess	-993
▁visit	-994
ott	-995
ined	-996
▁data	-997
▁i	-998
▁mus	-999
▁little	-1000
▁Ind	-1001
man	-1002
▁pay	-1003
ustr	-1004
▁products	-1005
loy	-1006
▁room	-1007
▁next	-1008
▁point	-1009
thing	-1010
▁today	-1011
uss	-1012
▁She	-1013
ever	-1014
▁pass	-1015
▁give	-1016
▁better	-1017
ody	-1018
▁current	-1019
▁iss	-1020
▁report	-1021
dition	-1022
ccess	-1023
att	-1024
▁able	-1025
oot	-1026
ours	-1027
▁quest	-1028
ames	-1029
▁important	-1030
▁week	-1031
▁contin	-1032
work	-1033
ium	-1034
▁without	-1035
▁cr	-1036
ves	-1037
▁resp	-1038
oney	-1039
▁eng	-1040
ically	-1041
▁group	-1042
▁dist	-1043
ploy	-1044
▁spec	-1045
▁level	-1046
▁looking	-1047
▁must	-1048
▁things	-1049
▁conf	-1050
▁ef	-1051
meric	-1052
▁Is	-1053
ards	-1054
▁conc	-1055
▁direct	-1056
▁try	-1057
▁site	-1058
arly	-1059
▁gr	-1060
▁enjoy	-1061
▁state	-1062
▁grow	-1063
▁meet	-1064
ering	-1065
!!	-1066
▁ob	-1067
▁within	-1068
self	-1069
ething	-1070
▁put	-1071
▁working	-1072
▁equ	-1073
▁big	-1074
▁Con	-1075
▁order	-1076
eng	-1077
▁since	-1078
▁proble	-1079
▁local	-1080
outh	-1081
▁needs	-1082
ffic	-1083
▁oper	-1084
lection	-1085
▁website	-1086
▁Ph	-1087
▁view	-1088
▁project	-1089
ately	-1090
over	-1091
▁exam	-1092
▁bel	-1093
▁fac	-1094
▁hard	-1095
▁second	-1096
orn	-1097
▁blo	-1098
▁supp	-1099
▁def	-1100
▁gl	-1101
rist	-1102
iversity	-1103
▁let	-1104
▁head	-1105
▁Bl	-1106
▁Pr	-1107
▁est	-1108
ipp	-1109
▁addition	-1110
ique	-1111
▁Z	-1112
▁students	-1113
con	-1114
▁invest	-1115
▁Man	-1116
ared	-1117
▁sl	-1118
▁days	-1119
▁contact	-1120
▁Can	-1121
▁incre	-1122
▁win	-1123
▁game	-1124
▁Americ	-1125
▁beaut	-1126
aj	-1127
ential	-1128
▁check	-1129
▁applic	-1130
▁something	-1131
▁old	-1132
▁ann	-1133
rol	-1134
ote	-1135
▁event	-1136
▁fact	-1137
iron	-1138
uck	-1139
▁say	-1140
▁bro	-1141
▁inf	-1142
▁Tr	-1143
agement	-1144
▁food	-1145
▁easy	-1146
▁soc	-1147
▁rese	-1148
▁intern	-1149
▁air	-1150
here	-1151
▁power	-1152
▁Res	-1153
▁another	-1154
▁sal	-1155
br	-1156
▁cert	-1157
vent	-1158
▁Or	-1159
ision	-1160
▁test	-1161
▁Do	-1162
▁mov	-1163
▁bre	-1164
▁prom	-1165
ruct	-1166
▁pract	-1167
▁complete	-1168
▁product	-1169
ivid	-1170
cl	-1171
ains	-1172
▁pop	-1173
ator	-1174
rence	-1175
ats	-1176
▁Sp	-1177
▁large	-1178
▁perfect	-1179
▁children	-1180
▁sit	-1181
▁making	-1182
ills	-1183
▁detail	-1184
ently	-1185
ified	-1186
por	-1187
ode	-1188
▁Cent	-1189
▁vide	-1190
▁page	-1191
▁These	-1192
inal	-1193
▁impro	-1194
▁creat	-1195
cing	-1196
▁job	-1197
ems	-1198
▁Jo	-1199
sh	-1200
▁less	-1201
▁prote	-1202
ump	-1203
▁unt	-1204
let	-1205
▁wr	-1206
yle	-1207
▁buy	-1208
▁expl	-1209
ieve	-1210
▁might	-1211
▁‘	-1212
▁My	-1213
▁met	-1214
▁pos	-1215
▁public	-1216
bo	-1217
aterial	-1218
▁success	-1219
ER	-1220
illion	-1221
nding	-1222
▁present	-1223
ding	-1224
▁community	-1225
ised	-1226
▁learn	-1227
iety	-1228
▁never	-1229
ina	-1230
▁feat	-1231
ope	-1232
ases	-1233
▁create	-1234
to	-1235
iful	-1236
of	-1237
ogra	-1238
ission	-1239
gether	-1240
▁together	-1241
aster	-1242
ush	-1243
utes	-1244
▁Me	-1245
▁el	-1246
▁house	-1247
ids	-1248
ury	-1249
▁money	-1250
ird	-1251
▁activ	-1252
gin	-1253
ream	-1254
ron	-1255
▁US	-1256
."	-1257
▁That	-1258
ocus	-1259
▁along	-1260
▁sing	-1261
▁No	-1262
ense	-1263
▁got	-1264
ories	-1265
▁conne	-1266
▁understand	-1267
▁treat	-1268
atter	-1269
▁solut	-1270
fort	-1271
▁ask	-1272
aper	-1273
ley	-1274
rop	-1275
ten	-1276
▁ens	-1277
▁const	-1278
ived	-1279
▁below	-1280
▁name	-1281
▁effect	-1282
iven	-1283
▁course	-1284
▁until	-1285
▁include	-1286
▁change	-1287
part	-1288
▁based	-1289
aring	-1290
ustry	-1291
▁bas	-1292
enef	-1293
itc	-1294
▁opport	-1295
ney	-1296
▁soft	-1297
▁employ	-1298
ability	-1299
ration	-1300
▁material	-1301
▁chang	-1302
oring	-1303
▁ce	-1304
ok	-1305
orm	-1306
icle	-1307
ann	-1308
ged	-1309
ider	-1310
▁possible	-1311
▁offers	-1312
ted	-1313
lish	-1314
▁install	-1315
viron	-1316
,”	-1317
ify	-1318
▁personal	-1319
▁away	-1320
▁hot	-1321
oose	-1322
▁please	-1323
▁dra	-1324
▁clean	-1325
▁dev	-1326
▁sw	-1327
indow	-1328
▁turn	-1329
ember	-1330
ered	-1331
▁price	-1332
app	-1333
med	-1334
cent	-1335
▁One	-1336
▁range	-1337
▁Comm	-1338
▁law	-1339
itions	-1340
oci	-1341
min	-1342
nded	-1343
▁Des	-1344
ising	-1345
side	-1346
▁four	-1347
aff	-1348
▁members	-1349
ret	-1350
pos	-1351
▁night	-1352
▁Christ	-1353
▁music	-1354
ording	-1355
▁past	-1356
▁individ	-1357
omen	-1358
▁benef	-1359
ization	-1360
itive	-1361
▁Mar	-1362
▁Car	-1363
▁arr	-1364
▁Co	-1365
▁leg	-1366
ands	-1367
▁Tra	-1368
ger	-1369
▁focus	-1370
▁hist	-1371
▁Eng	-1372
▁pack	-1373
▁University	-1374
▁case	-1375
▁development	-1376
▁App	-1377
▁fav	-1378
oice	-1379
▁research	-1380
▁dem	-1381
▁expect	-1382
iting	-1383
▁require	-1384
▁elect	-1385
▁mult	-1386
▁account	-1387
ips	-1388
▁comes	-1389
▁pot	-1390
▁ste	-1391
▁short	-1392
▁Am	-1393
▁bed	-1394
▁why	-1395
ateg	-1396
▁industry	-1397
▁times	-1398
▁side	-1399
arent	-1400
veral	-1401
IN	-1402
▁clo	-1403
▁across	-1404
ured	-1405
▁lo	-1406
▁En	-1407
ency	-1408
▁live	-1409
pecial	-1410
▁Che	-1411
▁beautiful	-1412
urs	-1413
▁tem	-1414
▁pict	-1415
▁quick	-1416
▁tre	-1417
▁beh	-1418
ention	-1419
▁often	-1420
▁customers	-1421
▁store	-1422
▁educ	-1423
uper	-1424
▁line	-1425
▁makes	-1426
▁Please	-1427
▁Cont	-1428
ift	-1429
err	-1430
olid	-1431
▁season	-1432
▁space	-1433
ane	-1434
▁tool	-1435
ination	-1436
▁After	-1437
ism	-1438
▁la	-1439
▁review	-1440
▁purch	-1441
▁low	-1442
▁'	-1443
▁individual	-1444
rip	-1445
vironment	-1446
▁Br	-1447
▁having	-1448
anies	-1449
▁become	-1450
▁link	-1451
▁against	-1452
▁vers	-1453
▁specific	-1454
▁features	-1455
▁kind	-1456
▁Ro	-1457
▁cou	-1458
▁share	-1459
ape	-1460
▁net	-1461
▁move	-1462
uture	-1463
▁compet	-1464
▁key	-1465
▁control	-1466
af	-1467
▁Your	-1468
ably	-1469
ners	-1470
▁done	-1471
ready	-1472
▁Gu	-1473
▁Fe	-1474
▁cover	-1475
▁social	-1476
▁professional	-1477
▁hum	-1478
vious	-1479
▁bring	-1480
uf	-1481
▁term	-1482
hor	-1483
by	-1484
vern	-1485
the	-1486
▁several	-1487
▁video	-1488
wards	-1489
▁comb	-1490
▁May	-1491
▁Dr	-1492
uro	-1493
ots	-1494
▁fund	-1495
ograph	-1496
The	-1497
jects	-1498
▁—	-1499
▁commun	-1500
oor	-1501
ajor	-1502
▁flo	-1503
▁city	-1504
fer	-1505
▁ele	-1506
▁country	-1507
▁Comp	-1508
▁body	-1509
▁email	-1510
▁hours	-1511
▁Ste	-1512
▁hig	-1513
▁camp	-1514
anks	-1515
▁minutes	-1516
osp	-1517
ford	-1518
▁left	-1519
▁Fl	-1520
cell	-1521
ilt	-1522
▁typ	-1523
▁means	-1524
▁Inst	-1525
▁ever	-1526
▁technology	-1527
▁priv	-1528
▁provides	-1529
▁di	-1530
opp	-1531
▁deal	-1532
enn	-1533
ides	-1534
urity	-1535
▁es	-1536
▁main	-1537
▁Serv	-1538
▁writ	-1539
▁friends	-1540
ilities	-1541
ai	-1542
rap	-1543
▁already	-1544
▁getting	-1545
▁pie	-1546
▁record	-1547
▁non	-1548
orts	-1549
▁orig	-1550
ee	-1551
▁others	-1552
book	-1553
▁Intern	-1554
▁companies	-1555
urance	-1556
▁occ	-1557
alf	-1558
aces	-1559
▁word	-1560
▁thing	-1561
▁unique	-1562
▁jo	-1563
▁X	-1564
▁mar	-1565
▁Sy	-1566
▁hold	-1567
ones	-1568
▁cut	-1569
▁maint	-1570
▁prep	-1571
ec	-1572
.,	-1573
▁lim	-1574
▁future	-1575
ON	-1576
▁upd	-1577
▁govern	-1578
▁questions	-1579
▁redu	-1580
ister	-1581
augh	-1582
▁sum	-1583
▁step	-1584
▁search	-1585
ufact	-1586
▁,	-1587
▁Med	-1588
▁print	-1589
atural	-1590
▁building	-1591
ances	-1592
ights	-1593
cer	-1594
unch	-1595
▁enough	-1596
▁recom	-1597
▁offic	-1598
▁However	-1599
resh	-1600
ained	-1601
ctor	-1602
ief	-1603
▁major	-1604
conom	-1605
▁fore	-1606
▁environment	-1607
▁training	-1608
▁bit	-1609
ored	-1610
▁designed	-1611
▁recomme	-1612
AT	-1613
▁mind	-1614
bal	-1615
▁Ass	-1616
inc	-1617
▁works	-1618
ries	-1619
▁story	-1620
une	-1621
▁started	-1622
▁field	-1623
AN	-1624
urther	-1625
▁rele	-1626
▁invol	-1627
ribut	-1628
▁property	-1629
▁exc	-1630
▁close	-1631
▁mil	-1632
▁cra	-1633
▁travel	-1634
▁anal	-1635
▁chall	-1636
lished	-1637
▁wa	-1638
cle	-1639
▁return	-1640
son	-1641
gr	-1642
▁value	-1643
ex	-1644
▁size	-1645
▁walk	-1646
▁Wor	-1647
▁Rep	-1648
ference	-1649
itchen	-1650
▁staff	-1651
ource	-1652
uff	-1653
AR	-1654
aining	-1655
▁web	-1656
nder	-1657
mber	-1658
▁simple	-1659
▁results	-1660
▁won	-1661
▁management	-1662
▁ensure	-1663
ches	-1664
▁/	-1665
▁news	-1666
ancial	-1667
▁vol	-1668
▁et	-1669
▁stay	-1670
▁ener	-1671
▁strong	-1672
aim	-1673
ources	-1674
▁address	-1675
▁areas	-1676
▁click	-1677
ript	-1678
▁once	-1679
atic	-1680
▁clients	-1681
▁discuss	-1682
sel	-1683
▁improve	-1684
irm	-1685
▁office	-1686
arning	-1687
come	-1688
▁experien	-1689
▁port	-1690
▁card	-1691
▁young	-1692
▁wall	-1693
▁talk	-1694
▁called	-1695
rodu	-1696
ledge	-1697
▁sell	-1698
▁heart	-1699
place	-1700
ither	-1701
▁Im	-1702
▁men	-1703
▁download	-1704
ges	-1705
sw	-1706
ival	-1707
omes	-1708
obile	-1709
yl	-1710
most	-1711
▁million	-1712
hn	-1713
uly	-1714
pend	-1715
resent	-1716
▁begin	-1717
▁months	-1718
irl	-1719
▁certain	-1720
▁doing	-1721
▁study	-1722
▁customer	-1723
astic	-1724
▁far	-1725
ental	-1726
hers	-1727
reet	-1728
▁tell	-1729
▁everything	-1730
▁City	-1731
▁hope	-1732
▁School	-1733
ethod	-1734
▁bar	-1735
osed	-1736
▁ident	-1737
▁break	-1738
ww	-1739
li	-1740
idd	-1741
▁various	-1742
▁wond	-1743
▁Count	-1744
▁enc	-1745
▁assist	-1746
ony	-1747
▁mean	-1748
▁known	-1749
▁track	-1750
isk	-1751
▁living	-1752
nov	-1753
illed	-1754
▁choose	-1755
▁wide	-1756
▁performance	-1757
▁problem	-1758
▁God	-1759
▁ey	-1760
ply	-1761
▁mom	-1762
abor	-1763
▁tot	-1764
▁type	-1765
ocu	-1766
▁sound	-1767
▁single	-1768
▁color	-1769
▁respons	-1770
▁friend	-1771
ruction	-1772
▁above	-1773
▁z	-1774
▁mot	-1775
arr	-1776
▁style	-1777
ests	-1778
▁following	-1779
▁select	-1780
▁table	-1781
▁issues	-1782
▁comfort	-1783
▁front	-1784
▁near	-1785
▁yet	-1786
▁host	-1787
▁series	-1788
▁particular	-1789
▁Here	-1790
,"	-1791
▁Now	-1792
▁sn	-1793
▁tour	-1794
ral	-1795
▁dig	-1796
▁includes	-1797
▁Not	-1798
gle	-1799
▁pick	-1800
▁Pre	-1801
▁charact	-1802
▁located	-1803
ensive	-1804
▁Min	-1805
▁early	-1806
▁particip	-1807
▁least	-1808
oll	-1809
▁press	-1810
ume	-1811
▁lat	-1812
lex	-1813
▁South	-1814
hest	-1815
▁Euro	-1816
▁options	-1817
▁cook	-1818
▁content	-1819
▁oil	-1820
fully	-1821
aps	-1822
aken	-1823
▁Bo	-1824
lege	-1825
▁manag	-1826
▁media	-1827
▁engine	-1828
▁veh	-1829
ians	-1830
▁doesn	-1831
▁events	-1832
asing	-1833
▁American	-1834
▁details	-1835
▁mess	-1836
▁Park	-1837
▁manufact	-1838
play	-1839
▁tax	-1840
▁required	-1841
irt	-1842
roll	-1843
▁amount	-1844
ipment	-1845
▁appear	-1846
▁mach	-1847
▁flow	-1848
▁Gra	-1849
▁par	-1850
▁tas	-1851
▁white	-1852
aur	-1853
cted	-1854
▁Ke	-1855
▁energy	-1856
▁ideas	-1857
ched	-1858
nam	-1859
▁Just	-1860
azing	-1861
icy	-1862
▁Qu	-1863
▁favor	-1864
▁aud	-1865
ille	-1866
oon	-1867
iod	-1868
▁North	-1869
gest	-1870
▁women	-1871
▁cred	-1872
vert	-1873
▁Inc	-1874
▁comput	-1875
▁ess	-1876
▁phone	-1877
▁popular	-1878
ibility	-1879
ables	-1880
ux	-1881
▁pan	-1882
▁pain	-1883
ites	-1884
▁due	-1885
ops	-1886
▁extra	-1887
pecially	-1888
▁taking	-1889
▁ach	-1890
▁glo	-1891
▁given	-1892
▁ready	-1893
ogn	-1894
▁Sm	-1895
▁actually	-1896
lebr	-1897
ulation	-1898
tt	-1899
▁Dis	-1900
▁added	-1901
rew	-1902
▁natural	-1903
RE	-1904
▁text	-1905
▁method	-1906
▁five	-1907
atur	-1908
▁took	-1909
▁feature	-1910
▁cult	-1911
▁software	-1912
▁effective	-1913
itted	-1914
▁mag	-1915
▁Pe	-1916
▁throughout	-1917
▁says	-1918
▁sol	-1919
eral	-1920
▁insp	-1921
▁While	-1922
▁receive	-1923
rict	-1924
▁United	-1925
▁John	-1926
▁came	-1927
▁fit	-1928
▁someone	-1929
▁black	-1930
▁reason	-1931
imate	-1932
ety	-1933
▁whole	-1934
▁log	-1935
▁didn	-1936
mb	-1937
▁High	-1938
▁Cal	-1939
▁wood	-1940
crib	-1941
▁further	-1942
▁ant	-1943
▁Su	-1944
not	-1945
▁percent	-1946
▁Don	-1947
ball	-1948
▁box	-1949
ler	-1950
▁latest	-1951
▁currently	-1952
▁docu	-1953
▁#	-1954
ibr	-1955
▁Per	-1956
▁age	-1957
▁relations	-1958
▁among	-1959
ung	-1960
▁games	-1961
▁knowledge	-1962
ises	-1963
▁government	-1964
▁thought	-1965
▁Europe	-1966
urch	-1967
▁example	-1968
▁eff	-1969
▁systems	-1970
▁park	-1971
▁Bu	-1972
ators	-1973
▁autom	-1974
▁From	-1975
▁Tw	-1976
▁miss	-1977
ead	-1978
▁face	-1979
▁everyone	-1980
pro	-1981
▁provided	-1982
ided	-1983
▁By	-1984
▁consider	-1985
▁yourself	-1986
▁Apr	-1987
▁safe	-1988
▁common	-1989
▁dam	-1990
▁created	-1991
gra	-1992
▁happen	-1993
go	-1994
▁ful	-1995
▁econom	-1996
anced	-1997
ps	-1998
▁opportunity	-1999
▁financial	-2000
▁application	-2001
▁Reg	-2002
▁seen	-2003
▁Some	-2004
▁soon	-2005
▁idea	-2006
▁lov	-2007
▁accom	-2008
▁needed	-2009
▁history	-2010
▁watch	-2011
back	-2012
▁skin	-2013
▁National	-2014
▁x	-2015
umb	-2016
▁super	-2017
▁tou	-2018
aus	-2019
▁announ	-2020
indows	-2021
▁later	-2022
▁fast	-2023
iple	-2024
time	-2025
▁skills	-2026
▁potential	-2027
aching	-2028
▁Part	-2029
▁bath	-2030
ging	-2031
▁entire	-2032
▁Stud	-2033
ino	-2034
▁Bro	-2035
▁etc	-2036
▁phys	-2037
▁diff	-2038
▁function	-2039
ires	-2040
▁period	-2041
▁image	-2042
▁parent	-2043
▁State	-2044
idence	-2045
▁fre	-2046
▁excell	-2047
▁Ab	-2048
?<	-2049
▁cond	-2050
▁coll	-2051
▁meas	-2052
cript	-2053
tend	-2054
▁dou	-2055
▁variety	-2056
▁blog	-2057
ees	-2058
▁happy	-2059
itch	-2060
▁red	-2061
▁brand	-2062
airs	-2063
▁save	-2064
▁road	-2065
▁paper	-2066
▁foot	-2067
▁fire	-2068
apt	-2069
▁whether	-2070
▁forward	-2071
ED	-2072
▁projects	-2073
▁network	-2074
irc	-2075
ification	-2076
ication	-2077
▁land	-2078
▁fall	-2079
▁init	-2080
▁sales	-2081
aid	-2082
▁half	-2083
par	-2084
AL	-2085
ued	-2086
▁Jan	-2087
▁either	-2088
▁security	-2089
▁simply	-2090
▁answ	-2091
icult	-2092
▁went	-2093
▁believe	-2094
▁insurance	-2095
▁providing	-2096
▁users	-2097
▁especially	-2098
▁author	-2099
▁film	-2100
▁Are	-2101
wh	-2102
▁World	-2103
▁sat	-2104
▁Home	-2105
▁problems	-2106
opy	-2107
▁represent	-2108
▁Acc	-2109
▁kitchen	-2110
hing	-2111
▁private	-2112
▁tradition	-2113
▁ways	-2114
▁celebr	-2115
▁Austr	-2116
▁model	-2117
▁activities	-2118
▁items	-2119
▁situ	-2120
iate	-2121
▁regular	-2122
▁wonder	-2123
▁Bra	-2124
arl	-2125
▁sugg	-2126
▁equipment	-2127
▁effic	-2128
▁necess	-2129
▁date	-2130
▁learning	-2131
▁self	-2132
▁famil	-2133
▁impact	-2134
icated	-2135
atform	-2136
aily	-2137
▁treatment	-2138
▁cool	-2139
acy	-2140
▁version	-2141
▁Center	-2142
selves	-2143
▁York	-2144
▁quite	-2145
▁clear	-2146
▁April	-2147
AC	-2148
though	-2149
▁file	-2150
face	-2151
▁Design	-2152
verage	-2153
▁solutions	-2154
▁jour	-2155
▁bott	-2156
arden	-2157
icro	-2158
▁prob	-2159
▁Us	-2160
▁education	-2161
▁ago	-2162
▁Dep	-2163
▁Sec	-2164
ilar	-2165
ES	-2166
▁Fin	-2167
▁Off	-2168
▁exist	-2169
▁choice	-2170
▁built	-2171
▁modern	-2172
▁Bar	-2173
▁member	-2174
▁sale	-2175
fr	-2176
▁amazing	-2177
▁kids	-2178
idge	-2179
anc	-2180
ew	-2181
▁collection	-2182
▁Will	-2183
▁taken	-2184
▁drive	-2185
▁materials	-2186
▁via	-2187
▁regard	-2188
▁mor	-2189
▁Gr	-2190
▁nice	-2191
▁Get	-2192
▁ut	-2193
IT	-2194
▁official	-2195
▁Aut	-2196
▁takes	-2197
▁allows	-2198
▁spr	-2199
era	-2200
▁relationship	-2201
▁original	-2202
▁mix	-2203
▁human	-2204
IC	-2205
▁coming	-2206
▁easily	-2207
▁party	-2208
▁County	-2209
▁consum	-2210
▁almost	-2211
▁UK	-2212
▁Thanks	-2213
imum	-2214
▁summer	-2215
EN	-2216
▁held	-2217
angu	-2218
▁anything	-2219
oura	-2220
▁third	-2221
▁additional	-2222
▁cal	-2223
uge	-2224
▁location	-2225
▁dri	-2226
ground	-2227
▁po	-2228
▁Day	-2229
▁expert	-2230
▁Em	-2231
▁standard	-2232
▁signific	-2233
ison	-2234
▁hy	-2235
▁continue	-2236
ept	-2237
edding	-2238
▁wel	-2239
▁difficult	-2240
▁West	-2241
▁More	-2242
▁increase	-2243
cil	-2244
▁code	-2245
▁sle	-2246
eter	-2247
head	-2248
▁according	-2249
▁question	-2250
▁final	-2251
overed	-2252
▁previous	-2253
▁running	-2254
▁inside	-2255
▁claim	-2256
ada	-2257
▁Air	-2258
where	-2259
▁Ed	-2260
itor	-2261
▁apply	-2262
▁saf	-2263
▁marketing	-2264
▁sun	-2265
ana	-2266
▁production	-2267
▁recogn	-2268
▁fresh	-2269
reme	-2270
▁base	-2271
orage	-2272
▁song	-2273
▁Ge	-2274
▁Sw	-2275
oud	-2276
iring	-2277
oogle	-2278
▁position	-2279
▁pret	-2280
▁recommend	-2281
▁lay	-2282
▁deb	-2283
ster	-2284
pper	-2285
▁leading	-2286
ura	-2287
▁Of	-2288
ese	-2289
▁dog	-2290
▁changes	-2291
▁practice	-2292
▁writing	-2293
▁estab	-2294
itting	-2295
▁issue	-2296
▁Cor	-2297
▁stra	-2298
▁shows	-2299
aving	-2300
▁Austral	-2301
gress	-2302
▁swe	-2303
▁Val	-2304
▁user	-2305
▁Art	-2306
▁Int	-2307
▁abs	-2308
▁town	-2309
hib	-2310
▁Pres	-2311
oman	-2312
oid	-2313
▁outside	-2314
aging	-2315
my	-2316
ham	-2317
▁received	-2318
▁purchase	-2319
olution	-2320
iture	-2321
elt	-2322
▁international	-2323
izes	-2324
▁points	-2325
mit	-2326
▁crit	-2327
▁favorite	-2328
▁included	-2329
▁associ	-2330
iam	-2331
▁parts	-2332
▁rate	-2333
....	-2334
▁six	-2335
▁role	-2336
▁total	-2337
ming	-2338
▁screen	-2339
▁Ag	-2340
▁Pol	-2341
ffe	-2342
▁sche	-2343
▁leave	-2344
▁risk	-2345
▁growth	-2346
uit	-2347
nes	-2348
▁recently	-2349
▁weeks	-2350
▁platform	-2351
▁bad	-2352
▁option	-2353
rs	-2354
▁struct	-2355
▁hon	-2356
▁looks	-2357
ecut	-2358
aby	-2359
wood	-2360
▁anim	-2361
▁His	-2362
??	-2363
etimes	-2364
izing	-2365
▁solution	-2366
▁recent	-2367
▁Mc	-2368
▁pretty	-2369
▁Every	-2370
▁hair	-2371
▁defin	-2372
▁photos	-2373
mas	-2374
▁bal	-2375
▁furn	-2376
▁TH	-2377
▁sent	-2378
arget	-2379
▁programs	-2380
▁images	-2381
▁deg	-2382
▁accept	-2383
new	-2384
▁[	-2385
▁mobile	-2386
▁however	-2387
▁excellent	-2388
▁coun	-2389
▁draw	-2390
▁medical	-2391
▁tools	-2392
▁display	-2393
▁Oct	-2394
▁ground	-2395
AS	-2396
▁stock	-2397
▁Let	-2398
▁highly	-2399
▁determ	-2400
istration	-2401
▁likely	-2402
ellow	-2403
▁quickly	-2404
▁El	-2405
icles	-2406
▁inj	-2407
▁collect	-2408
▁March	-2409
▁ple	-2410
▁match	-2411
▁posted	-2412
▁significant	-2413
▁feed	-2414
▁exact	-2415
▁related	-2416
▁computer	-2417
na	-2418
▁matter	-2419
▁innov	-2420
▁meeting	-2421
▁usually	-2422
aced	-2423
▁bud	-2424
▁speak	-2425
▁door	-2426
▁floor	-2427
ole	-2428
bor	-2429
▁plant	-2430
▁commer	-2431
irth	-2432
▁behind	-2433
▁board	-2434
▁round	-2435
▁prices	-2436
▁trying	-2437
▁tick	-2438
ox	-2439
▁introdu	-2440
▁action	-2441
▁fram	-2442
hold	-2443
based	-2444
year	-2445
ipe	-2446
adem	-2447
▁sil	-2448
action	-2449
▁lives	-2450
▁stop	-2451
▁goal	-2452
▁Whe	-2453
▁credit	-2454
▁safety	-2455
▁*	-2456
itten	-2457
▁mark	-2458
urg	-2459
▁...	-2460
▁ded	-2461
▁suggest	-2462
▁Health	-2463
opping	-2464
ules	-2465
▁else	-2466
▁touch	-2467
iday	-2468
▁wanted	-2469
sc	-2470
▁worked	-2471
▁cand	-2472
▁clos	-2473
▁stat	-2474
ried	-2475
▁Bus	-2476
erve	-2477
▁dom	-2478
ha	-2479
▁isn	-2480
▁cam	-2481
ublic	-2482
▁digital	-2483
cast	-2484
▁request	-2485
▁restaur	-2486
▁worth	-2487
▁told	-2488
▁block	-2489
▁House	-2490
▁Ac	-2491
▁plans	-2492
▁corre	-2493
▁concern	-2494
▁fail	-2495
▁challeng	-2496
▁seem	-2497
▁longer	-2498
▁higher	-2499
▁Also	-2500
▁girl	-2501
▁types	-2502
IS	-2503
▁Great	-2504
put	-2505
▁sess	-2506
iable	-2507
▁character	-2508
▁squ	-2509
▁costs	-2510
uary	-2511
▁cell	-2512
▁condition	-2513
ky	-2514
▁couple	-2515
▁Free	-2516
ondon	-2517
▁prior	-2518
▁deliver	-2519
▁leaders	-2520
▁tit	-2521
ishing	-2522
▁teac	-2523
▁student	-2524
▁sens	-2525
erc	-2526
▁rad	-2527
▁Par	-2528
▁anyone	-2529
OT	-2530
▁commercial	-2531
▁rent	-2532
▁consult	-2533
▁infl	-2534
▁general	-2535
▁contract	-2536
▁send	-2537
▁books	-2538
▁ill	-2539
▁arch	-2540
▁career	-2541
▁States	-2542
▁glass	-2543
▁:	-2544
▁picture	-2545
▁probably	-2546
▁Black	-2547
▁daily	-2548
▁true	-2549
▁prevent	-2550
▁helps	-2551
▁rout	-2552
▁similar	-2553
▁caus	-2554
▁benefits	-2555
▁suit	-2556
▁encoura	-2557
light	-2558
hel	-2559
▁qual	-2560
▁reading	-2561
▁Thank	-2562
▁decor	-2563
▁center	-2564
▁fully	-2565
▁ball	-2566
▁mount	-2567
board	-2568
▁Gl	-2569
▁Friday	-2570
▁chance	-2571
▁Sund	-2572
oes	-2573
oph	-2574
▁remov	-2575
earch	-2576
▁piece	-2577
▁requirements	-2578
▁trust	-2579
▁Her	-2580
▁International	-2581
unities	-2582
▁planning	-2583
▁Mon	-2584
▁profession	-2585
▁Up	-2586
▁Sim	-2587
ek	-2588
▁resources	-2589
▁approach	-2590
▁Google	-2591
▁Associ	-2592
▁lif	-2593
ters	-2594
▁patients	-2595
ville	-2596
▁London	-2597
eds	-2598
▁circ	-2599
▁bag	-2600
rug	-2601
▁paint	-2602
▁deep	-2603
reg	-2604
reng	-2605
▁tal	-2606
▁article	-2607
mon	-2608
▁Sept	-2609
ached	-2610
plement	-2611
▁holid	-2612
▁TV	-2613
▁vehicle	-2614
OU	-2615
▁loss	-2616
▁agree	-2617
▁partners	-2618
▁green	-2619
itut	-2620
▁gold	-2621
▁pictures	-2622
▁lit	-2623
▁dest	-2624
▁ability	-2625
just	-2626
▁Sal	-2627
▁entry	-2628
▁enter	-2629
atory	-2630
▁Soc	-2631
▁prem	-2632
▁Direct	-2633
ension	-2634
empt	-2635
▁inde	-2636
▁First	-2637
▁protect	-2638
▁client	-2639
▁langu	-2640
.”	-2641
▁Most	-2642
ze	-2643
▁lower	-2644
arant	-2645
uk	-2646
org	-2647
▁op	-2648
▁Then	-2649
▁gives	-2650
▁Add	-2651
iddle	-2652
▁directly	-2653
mm	-2654
▁fab	-2655
▁Face	-2656
▁words	-2657
▁rather	-2658
▁Group	-2659
▁necessary	-2660
▁global	-2661
▁morning	-2662
▁Click	-2663
▁Satur	-2664
▁Aug	-2665
▁Ins	-2666
aign	-2667
▁Book	-2668
▁heav	-2669
▁dry	-2670
▁June	-2671
▁national	-2672
inary	-2673
rec	-2674
▁warm	-2675
▁applications	-2676
▁Act	-2677
ington	-2678
▁Feb	-2679
▁conditions	-2680
▁release	-2681
arth	-2682
▁dress	-2683
▁neg	-2684
▁traditional	-2685
▁admin	-2686
▁businesses	-2687
▁emb	-2688
▁involved	-2689
▁cannot	-2690
▁fix	-2691
▁Rem	-2692
▁respect	-2693
hern	-2694
ought	-2695
▁ones	-2696
▁weeke	-2697
ivery	-2698
hood	-2699
▁target	-2700
▁players	-2701
▁Red	-2702
▁Any	-2703
▁aw	-2704
ipping	-2705
idents	-2706
arter	-2707
ivity	-2708
▁cause	-2709
pose	-2710
▁hands	-2711
▁average	-2712
▁multiple	-2713
▁achieve	-2714
▁Well	-2715
istic	-2716
▁storage	-2717
▁Dav	-2718
▁roll	-2719
▁photo	-2720
▁fig	-2721
ively	-2722
isf	-2723
illing	-2724
▁trip	-2725
▁levels	-2726
cription	-2727
▁America	-2728
ysis	-2729
▁emer	-2730
ny	-2731
AM	-2732
▁heat	-2733
▁India	-2734
▁San	-2735
▁Each	-2736
oke	-2737
▁separ	-2738
iding	-2739
▁machine	-2740
▁interested	-2741
▁reach	-2742
▁late	-2743
▁norm	-2744
▁gradu	-2745
▁Christmas	-2746
ples	-2747
▁integr	-2748
▁Mus	-2749
▁mass	-2750
▁Once	-2751
▁offering	-2752
▁Many	-2753
▁drink	-2754
▁Out	-2755
▁sett	-2756
▁Cons	-2757
▁prim	-2758
▁Cr	-2759
▁weight	-2760
▁lic	-2761
We	-2762
▁pers	-2763
ober	-2764
▁firm	-2765
iation	-2766
▁commit	-2767
▁construction	-2768
ipped	-2769
val	-2770
▁Cle	-2771
▁bank	-2772
▁playing	-2773
▁opportunities	-2774
▁Mr	-2775
▁connect	-2776
▁polit	-2777
▁Ser	-2778
▁award	-2779
vey	-2780
▁aim	-2781
▁Saturday	-2782
rown	-2783
▁huge	-2784
▁policy	-2785
iles	-2786
ooth	-2787
▁device	-2788
▁immed	-2789
now	-2790
▁moment	-2791
▁giving	-2792
//	-2793
str	-2794
▁Net	-2795
partment	-2796
▁creating	-2797
▁organization	-2798
nal	-2799
▁implement	-2800
▁document	-2801
▁Coun	-2802
▁Afric	-2803
▁Sam	-2804
▁parents	-2805
▁gar	-2806
▁streng	-2807
atives	-2808
door	-2809
▁Har	-2810
▁lab	-2811
artment	-2812
▁successful	-2813
▁legal	-2814
▁wedding	-2815
▁cy	-2816
▁bedroom	-2817
▁essential	-2818
▁repair	-2819
▁upon	-2820
▁source	-2821
▁Pat	-2822
eal	-2823
▁asked	-2824
▁Why	-2825
▁appl	-2826
▁budget	-2827
▁nothing	-2828
lim	-2829
▁developed	-2830
▁English	-2831
▁gift	-2832
▁seems	-2833
ades	-2834
▁La	-2835
asons	-2836
▁club	-2837
ares	-2838
▁attention	-2839
▁Best	-2840
erous	-2841
▁Business	-2842
▁Check	-2843
▁Post	-2844
▁Service	-2845
▁Sunday	-2846
▁max	-2847
▁--	-2848
aged	-2849
▁January	-2850
uel	-2851
▁gen	-2852
▁Over	-2853
▁countries	-2854
▁decision	-2855
enty	-2856
://	-2857
▁Since	-2858
▁China	-2859
ties	-2860
iff	-2861
ashion	-2862
pri	-2863
aches	-2864
▁Read	-2865
abin	-2866
▁categ	-2867
itation	-2868
▁hotel	-2869
▁section	-2870
▁Techn	-2871
▁dream	-2872
irit	-2873
▁promot	-2874
▁Tod	-2875
▁wonderful	-2876
▁surpr	-2877
▁employees	-2878
▁Mod	-2879
▁released	-2880
▁experienced	-2881
▁Mond	-2882
aves	-2883
ault	-2884
▁fine	-2885
▁goals	-2886
▁sites	-2887
ule	-2888
▁July	-2889
▁|	-2890
▁campaign	-2891
itely	-2892
▁answer	-2893
▁Calif	-2894
▁decided	-2895
▁October	-2896
▁except	-2897
▁healthy	-2898
▁cases	-2899
raft	-2900
▁supply	-2901
iol	-2902
▁complex	-2903
▁capt	-2904
▁Facebook	-2905
▁shop	-2906
▁President	-2907
enge	-2908
sy	-2909
".	-2910
▁sold	-2911
▁afford	-2912
▁pool	-2913
igation	-2914
▁suppl	-2915
▁wish	-2916
urb	-2917
▁hit	-2918
▁homes	-2919
▁cat	-2920
ara	-2921
▁highest	-2922
orge	-2923
▁interesting	-2924
like	-2925
▁strateg	-2926
▁completely	-2927
▁September	-2928
isc	-2929
▁Down	-2930
ask	-2931
▁£	-2932
▁join	-2933
▁Prof	-2934
ude	-2935
▁expected	-2936
OM	-2937
gar	-2938
▁instru	-2939
▁extreme	-2940
▁appoint	-2941
▁hous	-2942
agn	-2943
▁cash	-2944
▁hour	-2945
▁offe	-2946
▁vac	-2947
fects	-2948
ester	-2949
▁Find	-2950
imately	-2951
▁speed	-2952
▁positive	-2953
▁note	-2954
▁families	-2955
▁garden	-2956
▁former	-2957
▁enh	-2958
mission	-2959
▁growing	-2960
aker	-2961
▁written	-2962
▁guide	-2963
aly	-2964
▁dise	-2965
▁earn	-2966
▁Look	-2967
▁Mich	-2968
▁lost	-2969
▁instead	-2970
▁serve	-2971
▁aware	-2972
▁photograph	-2973
▁goes	-2974
▁rock	-2975
▁replace	-2976
lock	-2977
ama	-2978
▁guarant	-2979
▁remember	-2980
▁express	-2981
▁seek	-2982
▁mat	-2983
▁condu	-2984
▁Trans	-2985
▁Department	-2986
ING	-2987
▁smart	-2988
ores	-2989
ET	-2990
▁satisf	-2991
▁birth	-2992
ovember	-2993
▁groups	-2994
▁weekend	-2995
▁surround	-2996
▁manufacture	-2997
amb	-2998
▁write	-2999
▁terms	-3000
▁serious	-3001
iant	-3002
▁Services	-3003
▁Gener	-3004
▁death	-3005
▁saw	-3006
▁dep	-3007
▁Rec	-3008
mod	-3009
▁starting	-3010
apan	-3011
ornia	-3012
▁furniture	-3013
▁eye	-3014
▁concept	-3015
▁message	-3016
▁sty	-3017
zy	-3018
rup	-3019
▁subject	-3020
▁Ant	-3021
olf	-3022
▁ep	-3023
▁Good	-3024
▁imm	-3025
aul	-3026
cember	-3027
house	-3028
wide	-3029
▁itself	-3030
”.	-3031
▁advant	-3032
▁farm	-3033
▁organiz	-3034
▁cross	-3035
istry	-3036
ening	-3037
▁themselves	-3038
▁impress	-3039
OS	-3040
▁published	-3041
key	-3042
▁System	-3043
bit	-3044
clus	-3045
▁hear	-3046
▁load	-3047
dule	-3048
ague	-3049
▁places	-3050
▁spend	-3051
▁Brit	-3052
▁Hot	-3053
▁carry	-3054
▁mid	-3055
▁affect	-3056
▁Bel	-3057
▁College	-3058
▁iP	-3059
▁Monday	-3060
porate	-3061
▁investment	-3062
▁delivery	-3063
▁consist	-3064
EC	-3065
▁Make	-3066
▁pages	-3067
ma	-3068
▁individuals	-3069
▁Del	-3070
▁sense	-3071
▁copy	-3072
lin	-3073
▁finish	-3074
ospital	-3075
▁Germ	-3076
▁moving	-3077
▁ideal	-3078
▁Port	-3079
▁pattern	-3080
▁neigh	-3081
▁East	-3082
mark	-3083
▁describ	-3084
▁November	-3085
ength	-3086
▁limited	-3087
elling	-3088
St	-3089
▁California	-3090
▁Call	-3091
▁wait	-3092
▁correct	-3093
▁bathroom	-3094
itute	-3095
▁industr	-3096
ocol	-3097
▁Inter	-3098
▁region	-3099
▁slow	-3100
▁transport	-3101
▁selection	-3102
▁IN	-3103
▁August	-3104
cies	-3105
▁comfortable	-3106
ological	-3107
▁Go	-3108
pped	-3109
▁December	-3110
umn	-3111
onse	-3112
enance	-3113
▁path	-3114
▁tele	-3115
▁Even	-3116
▁Ang	-3117
▁ble	-3118
▁avoid	-3119
ube	-3120
LL	-3121
▁temper	-3122
che	-3123
▁stress	-3124
bum	-3125
ceed	-3126
▁Cour	-3127
▁bi	-3128
idered	-3129
anch	-3130
amed	-3131
▁estate	-3132
iction	-3133
▁led	-3134
ruary	-3135
ett	-3136
off	-3137
▁Windows	-3138
▁Gold	-3139
▁Spr	-3140
▁Street	-3141
▁towards	-3142
TM	-3143
▁div	-3144
▁baby	-3145
▁court	-3146
▁adult	-3147
yond	-3148
iling	-3149
ibrary	-3150
▁ult	-3151
▁prec	-3152
EO	-3153
▁War	-3154
▁largest	-3155
▁coffe	-3156
▁King	-3157
▁double	-3158
▁helping	-3159
▁announced	-3160
▁ge	-3161
urt	-3162
▁advice	-3163
rench	-3164
▁schools	-3165
▁dark	-3166
▁attack	-3167
▁owners	-3168
▁uses	-3169
AP	-3170
▁collabor	-3171
▁band	-3172
▁effort	-3173
▁nature	-3174
▁ing	-3175
▁files	-3176
itter	-3177
ancy	-3178
▁blue	-3179
▁attend	-3180
ses	-3181
▁loved	-3182
▁weather	-3183
rought	-3184
▁creative	-3185
▁offered	-3186
isions	-3187
▁efficient	-3188
▁fair	-3189
mat	-3190
inner	-3191
▁Found	-3192
right	-3193
▁language	-3194
▁hor	-3195
▁exactly	-3196
▁Market	-3197
pendent	-3198
idential	-3199
itect	-3200
pre	-3201
▁Today	-3202
▁damage	-3203
icate	-3204
▁Japan	-3205
ida	-3206
▁+	-3207
▁internet	-3208
▁progress	-3209
▁regarding	-3210
▁broad	-3211
▁devices	-3212
ica	-3213
▁Law	-3214
band	-3215
▁altern	-3216
ager	-3217
oming	-3218
▁rev	-3219
▁Use	-3220
▁annual	-3221
▁active	-3222
▁benefit	-3223
▁See	-3224
▁February	-3225
▁obt	-3226
coming	-3227
▁reduce	-3228
▁myself	-3229
▁Work	-3230
useum	-3231
▁began	-3232
▁relax	-3233
▁understanding	-3234
▁>	-3235
▁gets	-3236
▁Green	-3237
aries	-3238
▁execut	-3239
▁Have	-3240
▁existing	-3241
▁drug	-3242
▁htt	-3243
▁completed	-3244
▁White	-3245
▁steel	-3246
▁conven	-3247
▁nut	-3248
ils	-3249
▁easier	-3250
gu	-3251
enior	-3252
▁craft	-3253
▁Produ	-3254
▁experts	-3255
▁physical	-3256
▁sleep	-3257
▁coffee	-3258
pm	-3259
▁rates	-3260
▁professionals	-3261
▁assess	-3262
▁ten	-3263
▁rights	-3264
porary	-3265
▁obs	-3266
▁sam	-3267
▁definitely	-3268
ications	-3269
▁mother	-3270
Th	-3271
▁analy	-3272
▁thinking	-3273
▁analysis	-3274
▁gas	-3275
▁button	-3276
attle	-3277
▁unit	-3278
▁lots	-3279
▁drop	-3280
▁mention	-3281
oul	-3282
wor	-3283
▁contribut	-3284
▁sometimes	-3285
▁comment	-3286
roid	-3287
ID	-3288
ulations	-3289
▁IT	-3290
▁ver	-3291
urning	-3292
▁Wash	-3293
▁wear	-3294
▁pet	-3295
▁Class	-3296
▁movie	-3297
unte	-3298
▁Love	-3299
▁exhib	-3300
▁Loc	-3301
▁tag	-3302
vant	-3303
hens	-3304
rows	-3305
▁Play	-3306
▁opp	-3307
▁setting	-3308
pects	-3309
▁Whether	-3310
▁stage	-3311
▁Other	-3312
agram	-3313
▁activity	-3314
▁window	-3315
▁subs	-3316
asc	-3317
▁Canada	-3318
chan	-3319
▁propos	-3320
▁batter	-3321
olute	-3322
des	-3323
▁•	-3324
▁contain	-3325
▁lock	-3326
▁charge	-3327
word	-3328
▁histor	-3329
▁apprec	-3330
▁frame	-3331
▁Wed	-3332
oms	-3333
▁object	-3334
▁hop	-3335
▁became	-3336
▁Australia	-3337
▁Program	-3338
▁exerc	-3339
▁attempt	-3340
▁AN	-3341
▁boy	-3342
▁Dist	-3343
▁Vis	-3344
▁convers	-3345
▁Spe	-3346
▁feet	-3347
oles	-3348
▁thanks	-3349
cel	-3350
vest	-3351
▁sweet	-3352
▁advert	-3353
▁secure	-3354
ederal	-3355
icious	-3356
alu	-3357
▁eat	-3358
ronic	-3359
▁teams	-3360
ertain	-3361
▁reported	-3362
▁bow	-3363
▁Club	-3364
▁dire	-3365
▁electric	-3366
roud	-3367
▁Russ	-3368
antly	-3369
▁item	-3370
▁flav	-3371
den	-3372
▁overall	-3373
▁played	-3374
▁repl	-3375
▁Av	-3376
▁adjust	-3377
▁purpose	-3378
▁sports	-3379
▁discount	-3380
▁cleaning	-3381
▁pressure	-3382
▁interview	-3383
▁Develop	-3384
▁pull	-3385
unk	-3386
▁wrong	-3387
▁background	-3388
iques	-3389
ategy	-3390
▁spot	-3391
▁reve	-3392
▁appropri	-3393
estival	-3394
▁Hall	-3395
PS	-3396
▁influ	-3397
▁blood	-3398
ira	-3399
ios	-3400
anging	-3401
▁cards	-3402
▁proced	-3403
▁distribut	-3404
▁degree	-3405
AD	-3406
▁plus	-3407
▁acqu	-3408
bert	-3409
▁sus	-3410
tended	-3411
▁stories	-3412
▁difference	-3413
▁compon	-3414
▁dedicated	-3415
imal	-3416
▁colors	-3417
▁pieces	-3418
zz	-3419
▁Internet	-3420
ologies	-3421
change	-3422
▁demand	-3423
▁holiday	-3424
▁schedule	-3425
allery	-3426
rast	-3427
▁pow	-3428
▁welcome	-3429
▁considered	-3430
unt	-3431
▁Phot	-3432
▁stuff	-3433
iced	-3434
▁Je	-3435
▁album	-3436
ibly	-3437
▁Association	-3438
ancing	-3439
formation	-3440
▁fight	-3441
▁Dec	-3442
ded	-3443
▁Thurs	-3444
▁Lear	-3445
odes	-3446
rences	-3447
tee	-3448
▁retail	-3449
▁Indian	-3450
bon	-3451
--	-3452
rel	-3453
▁shopping	-3454
▁Company	-3455
▁situation	-3456
▁fant	-3457
▁Year	-3458
In	-3459
▁dy	-3460
field	-3461
inter	-3462
▁candid	-3463
▁truly	-3464
erved	-3465
▁stick	-3466
▁Office	-3467
▁train	-3468
wise	-3469
▁response	-3470
▁spent	-3471
▁Sk	-3472
▁partner	-3473
▁protection	-3474
▁European	-3475
▁surface	-3476
▁journey	-3477
▁friendly	-3478
▁reviews	-3479
▁player	-3480
▁basic	-3481
▁lands	-3482
icing	-3483
▁feeling	-3484
▁culture	-3485
esome	-3486
▁colle	-3487
ders	-3488
▁stru	-3489
het	-3490
haps	-3491
▁reports	-3492
▁prefer	-3493
▁Council	-3494
rapy	-3495
▁thous	-3496
▁models	-3497
duc	-3498
▁Sch	-3499
▁college	-3500
▁pred	-3501
▁guests	-3502
▁fill	-3503
▁PC	-3504
▁wind	-3505
▁trade	-3506
ald	-3507
▁graph	-3508
▁basis	-3509
▁initial	-3510
▁bottom	-3511
▁paid	-3512
▁Open	-3513
▁Tues	-3514
▁thank	-3515
usher	-3516
▁served	-3517
▁installation	-3518
▁err	-3519
▁produce	-3520
▁finished	-3521
▁update	-3522
▁Pal	-3523
iately	-3524
▁According	-3525
▁Phil	-3526
atically	-3527
▁straight	-3528
▁Road	-3529
▁payment	-3530
▁Mac	-3531
xic	-3532
▁Thursday	-3533
▁frequ	-3534
▁sust	-3535
▁nation	-3536
▁roof	-3537
▁flex	-3538
ey	-3539
▁THE	-3540
▁vict	-3541
ship	-3542
▁Sub	-3543
▁driving	-3544
▁expand	-3545
▁advanced	-3546
▁Micro	-3547
arlier	-3548
hol	-3549
▁imag	-3550
▁depe	-3551
▁facilities	-3552
▁respond	-3553
icip	-3554
▁outdoor	-3555
▁listed	-3556
▁continu	-3557
que	-3558
▁fashion	-3559
▁cold	-3560
▁Flor	-3561
▁designs	-3562
fl	-3563
▁passion	-3564
phone	-3565
▁miles	-3566
uth	-3567
▁Mem	-3568
rey	-3569
▁lines	-3570
ixt	-3571
▁lik	-3572
▁wine	-3573
▁maintenance	-3574
▁responsible	-3575
▁Water	-3576
▁Web	-3577
▁cup	-3578
▁Download	-3579
▁views	-3580
▁smooth	-3581
▁increasing	-3582
▁Met	-3583
overn	-3584
▁Tex	-3585
▁rooms	-3586
iger	-3587
▁beyond	-3588
▁challenge	-3589
▁powerful	-3590
▁useful	-3591
▁demon	-3592
▁vill	-3593
▁dead	-3594
▁Educ	-3595
▁Plan	-3596
▁tips	-3597
erg	-3598
lands	-3599
▁proud	-3600
tion	-3601
▁occas	-3602
aught	-3603
▁IS	-3604
▁Top	-3605
▁beginning	-3606
▁Oh	-3607
▁tried	-3608
care	-3609
▁patient	-3610
▁clin	-3611
oices	-3612
▁master	-3613
▁viol	-3614
▁subst	-3615
▁Wednes	-3616
▁sand	-3617
▁behav	-3618
▁technical	-3619
istics	-3620
▁manage	-3621
▁During	-3622
▁Take	-3623
cause	-3624
▁Care	-3625
▁metal	-3626
usion	-3627
net	-3628
▁brought	-3629
LE	-3630
▁attract	-3631
cape	-3632
▁ingred	-3633
▁eyes	-3634
▁war	-3635
▁Tuesday	-3636
▁Last	-3637
▁Mor	-3638
▁police	-3639
▁Although	-3640
▁length	-3641
IP	-3642
▁steps	-3643
▁aff	-3644
▁util	-3645
pite	-3646
▁jud	-3647
▁approx	-3648
▁explore	-3649
▁gave	-3650
▁numbers	-3651
▁title	-3652
iend	-3653
▁immediately	-3654
venue	-3655
aling	-3656
▁mill	-3657
used	-3658
▁Board	-3659
▁winter	-3660
itary	-3661
▁classic	-3662
oos	-3663
estern	-3664
▁Management	-3665
▁transfer	-3666
iny	-3667
▁cars	-3668
▁pen	-3669
alt	-3670
▁reasons	-3671
▁map	-3672
▁extremely	-3673
nown	-3674
▁camera	-3675
▁standards	-3676
ael	-3677
▁dat	-3678
▁finally	-3679
▁Sing	-3680
undred	-3681
▁son	-3682
inated	-3683
▁emot	-3684
acity	-3685
tra	-3686
▁wild	-3687
▁heard	-3688
▁spirit	-3689
▁doll	-3690
aughter	-3691
oe	-3692
▁incred	-3693
▁effects	-3694
▁owner	-3695
▁lux	-3696
oly	-3697
▁shoot	-3698
▁sharing	-3699
▁session	-3700
▁colour	-3701
dy	-3702
▁David	-3703
▁cru	-3704
izz	-3705
▁ahead	-3706
▁Ir	-3707
It	-3708
ned	-3709
▁cream	-3710
ieved	-3711
▁Jack	-3712
enture	-3713
▁Bank	-3714
▁opening	-3715
▁covered	-3716
▁exclus	-3717
ously	-3718
ences	-3719
dom	-3720
▁strength	-3721
▁woman	-3722
sp	-3723
▁measure	-3724
▁mission	-3725
▁Profess	-3726
▁fra	-3727
▁Mag	-3728
▁Super	-3729
▁Wednesday	-3730
▁nearly	-3731
arc	-3732
▁identify	-3733
▁absolute	-3734
▁accommod	-3735
▁remove	-3736
▁meaning	-3737
set	-3738
▁Hel	-3739
orial	-3740
▁strategy	-3741
▁onto	-3742
hy	-3743
mitted	-3744
▁handle	-3745
BC	-3746
▁increased	-3747
▁Contact	-3748
▁motor	-3749
▁appropriate	-3750
▁beauty	-3751
irr	-3752
▁contains	-3753
▁helped	-3754
force	-3755
fit	-3756
inate	-3757
▁cas	-3758
▁tim	-3759
▁cabin	-3760
▁established	-3761
▁Wood	-3762
unning	-3763
▁advantage	-3764
▁felt	-3765
▁challenges	-3766
▁disease	-3767
▁fans	-3768
▁Lake	-3769
sych	-3770
▁wasn	-3771
▁organizations	-3772
fast	-3773
▁race	-3774
more	-3775
▁u	-3776
▁launch	-3777
▁ST	-3778
▁Jes	-3779
▁Cam	-3780
▁cheap	-3781
▁chem	-3782
lement	-3783
ports	-3784
▁structure	-3785
▁Wall	-3786
▁French	-3787
order	-3788
ulated	-3789
▁Texas	-3790
▁Str	-3791
▁evening	-3792
▁Bay	-3793
ston	-3794
▁evalu	-3795
▁Cur	-3796
▁fan	-3797
▁worksh	-3798
▁stream	-3799
▁mer	-3800
▁peace	-3801
▁Sur	-3802
plate	-3803
▁wants	-3804
▁spread	-3805
▁experiences	-3806
▁volunte	-3807
▁Ve	-3808
▁Ide	-3809
soft	-3810
▁jobs	-3811
▁grand	-3812
othing	-3813
▁fly	-3814
▁associated	-3815
met	-3816
▁thr	-3817
OL	-3818
▁occur	-3819
▁capital	-3820
▁Rock	-3821
▁properties	-3822
▁beach	-3823
▁normal	-3824
▁Research	-3825
▁maintain	-3826
▁Mount	-3827
▁shape	-3828
▁fat	-3829
ari	-3830
ales	-3831
pet	-3832
▁methods	-3833
ris	-3834
▁artist	-3835
▁dining	-3836
▁conference	-3837
▁Apple	-3838
▁chann	-3839
▁changed	-3840
arily	-3841
▁Hy	-3842
rehens	-3843
atever	-3844
▁shown	-3845
▁Dan	-3846
▁Washington	-3847
▁heavy	-3848
▁techniques	-3849
▁traffic	-3850
standing	-3851
▁particularly	-3852
▁Yes	-3853
▁economic	-3854
akers	-3855
▁Child	-3856
▁Som	-3857
▁Paul	-3858
▁billion	-3859
▁Custom	-3860
▁Ann	-3861
rem	-3862
EL	-3863
▁solid	-3864
▁remain	-3865
ION	-3866
▁driver	-3867
▁cast	-3868
iency	-3869
▁spring	-3870
!!!	-3871
▁science	-3872
▁efforts	-3873
ken	-3874
EM	-3875
oyal	-3876
▁package	-3877
box	-3878
▁restaurant	-3879
▁Power	-3880
__	-3881
▁wire	-3882
▁developing	-3883
azon	-3884
▁links	-3885
▁tree	-3886
▁larger	-3887
▁rich	-3888
ows	-3889
▁cry	-3890
▁Life	-3891
▁truck	-3892
iar	-3893
ago	-3894
ef	-3895
▁task	-3896
▁church	-3897
▁adding	-3898
ipl	-3899
▁sched	-3900
▁Fam	-3901
▁Sum	-3902
istr	-3903
▁forget	-3904
▁classes	-3905
▁Because	-3906
▁certainly	-3907
▁Ret	-3908
▁residents	-3909
▁plenty	-3910
▁competition	-3911
hips	-3912
▁Govern	-3913
▁born	-3914
▁communities	-3915
▁videos	-3916
ctors	-3917
▁named	-3918
▁lack	-3919
▁Sil	-3920
▁finding	-3921
▁notice	-3922
▁middle	-3923
▁affordable	-3924
▁selected	-3925
▁Adv	-3926
▁turned	-3927
▁shared	-3928
ails	-3929
▁Engine	-3930
aith	-3931
▁discover	-3932
▁hundred	-3933
▁communication	-3934
down	-3935
ented	-3936
▁requires	-3937
▁River	-3938
cks	-3939
▁defe	-3940
▁maybe	-3941
ota	-3942
▁News	-3943
acing	-3944
aled	-3945
▁cancer	-3946
▁Director	-3947
oma	-3948
icken	-3949
orrow	-3950
ounds	-3951
vin	-3952
▁Cong	-3953
encies	-3954
▁liter	-3955
▁guid	-3956
▁AC	-3957
top	-3958
▁Fore	-3959
▁academ	-3960
▁bul	-3961
▁comments	-3962
▁institut	-3963
▁bright	-3964
iverse	-3965
free	-3966
gency	-3967
▁states	-3968
▁stone	-3969
▁Light	-3970
US	-3971
▁Ob	-3972
▁ter	-3973
▁statement	-3974
▁political	-3975
▁produced	-3976
▁fabric	-3977
istered	-3978
▁sort	-3979
▁star	-3980
asy	-3981
mp	-3982
▁director	-3983
▁taste	-3984
ads	-3985
ij	-3986
icon	-3987
▁resist	-3988
term	-3989
▁Elect	-3990
▁exciting	-3991
arge	-3992
bu	-3993
rical	-3994
inese	-3995
▁visitors	-3996
▁Mart	-3997
▁plants	-3998
▁scient	-3999
▁studies	-4000
icine	-4001
▁prepared	-4002
▁station	-4003
ulate	-4004
▁www	-4005
▁earlier	-4006
▁arrange	-4007
▁buying	-4008
▁allowed	-4009
▁II	-4010
▁loan	-4011
▁Build	-4012
itude	-4013
▁AP	-4014
sequ	-4015
▁mo	-4016
▁moved	-4017
▁Institute	-4018
▁Team	-4019
▁famous	-4020
▁prot	-4021
▁slight	-4022
▁medium	-4023
ipes	-4024
ss	-4025
▁Church	-4026
▁tickets	-4027
▁multi	-4028
▁excited	-4029
▁greater	-4030
▁mechan	-4031
▁Bre	-4032
▁innovative	-4033
iber	-4034
▁vot	-4035
▁followed	-4036
▁British	-4037
▁saying	-4038
▁organis	-4039
▁Sun	-4040
▁connection	-4041
▁Special	-4042
omb	-4043
▁teaching	-4044
▁expertise	-4045
▁architect	-4046
paper	-4047
▁Rel	-4048
▁shot	-4049
▁testing	-4050
iration	-4051
imb	-4052
▁shall	-4053
▁keeping	-4054
ivil	-4055
▁fish	-4056
inger	-4057
▁General	-4058
▁bur	-4059
▁Online	-4060
▁seven	-4061
anta	-4062
▁snow	-4063
▁Florida	-4064
press	-4065
▁updated	-4066
▁plastic	-4067
itors	-4068
▁facility	-4069
▁breat	-4070
▁Two	-4071
▁presented	-4072
▁compared	-4073
ened	-4074
▁interior	-4075
▁names	-4076
IM	-4077
▁Music	-4078
ona	-4079
",	-4080
OW	-4081
▁Camp	-4082
▁eight	-4083
▁William	-4084
▁artists	-4085
▁primary	-4086
▁aren	-4087
▁letter	-4088
▁alone	-4089
▁ice	-4090
▁trou	-4091
ado	-4092
▁Back	-4093
▁fee	-4094
ady	-4095
semb	-4096
▁Pay	-4097
▁quarter	-4098
▁Est	-4099
▁Mark	-4100
▁waiting	-4101
▁practices	-4102
▁Big	-4103
▁luck	-4104
apers	-4105
▁elements	-4106
see	-4107
emporary	-4108
▁critical	-4109
▁Rich	-4110
▁incor	-4111
▁Blue	-4112
▁extensive	-4113
▁income	-4114
▁pump	-4115
▁People	-4116
▁@	-4117
▁wife	-4118
▁princ	-4119
▁Hol	-4120
▁operations	-4121
▁installed	-4122
raw	-4123
▁Vol	-4124
▁Fire	-4125
▁strugg	-4126
▁ingredients	-4127
▁Mal	-4128
▁balance	-4129
▁hom	-4130
▁rules	-4131
▁egg	-4132
▁courses	-4133
▁fold	-4134
▁hus	-4135
▁placed	-4136
▁pair	-4137
▁leader	-4138
ula	-4139
▁upgra	-4140
▁sustain	-4141
▁fantastic	-4142
▁trail	-4143
▁Under	-4144
▁audience	-4145
▁Mot	-4146
rom	-4147
enses	-4148
▁calc	-4149
▁forms	-4150
look	-4151
ifts	-4152
▁USA	-4153
▁initi	-4154
▁biggest	-4155
”,	-4156
▁menu	-4157
▁matt	-4158
ampions	-4159
▁Beach	-4160
▁sup	-4161
▁values	-4162
▁category	-4163
▁father	-4164
▁visual	-4165
▁Jesus	-4166
▁windows	-4167
▁sector	-4168
▁seeing	-4169
ervation	-4170
ym	-4171
▁surv	-4172
ga	-4173
▁advance	-4174
▁capacity	-4175
▁funds	-4176
works	-4177
▁haven	-4178
▁voice	-4179
cut	-4180
▁Court	-4181
rehensive	-4182
▁vision	-4183
log	-4184
▁parking	-4185
▁cloud	-4186
end	-4187
▁Africa	-4188
▁Mill	-4189
▁pros	-4190
▁Mary	-4191
rete	-4192
▁demonstr	-4193
▁James	-4194
▁Dem	-4195
▁combination	-4196
active	-4197
ishes	-4198
▁Arch	-4199
▁determine	-4200
▁Education	-4201
▁format	-4202
▁AM	-4203
erry	-4204
▁awesome	-4205
▁shel	-4206
▁?	-4207
▁server	-4208
sm	-4209
▁Community	-4210
▁serving	-4211
▁shipping	-4212
▁recipe	-4213
▁Ev	-4214
▁doub	-4215
▁virt	-4216
overy	-4217
asure	-4218
ero	-4219
atively	-4220
▁Who	-4221
▁Like	-4222
▁locations	-4223
▁numerous	-4224
uled	-4225
▁lovely	-4226
▁Foundation	-4227
mal	-4228
▁mis	-4229
ocolate	-4230
▁suitable	-4231
▁Public	-4232
oop	-4233
▁theme	-4234
▁street	-4235
▁Next	-4236
▁operating	-4237
▁selling	-4238
▁encourage	-4239
hone	-4240
▁rob	-4241
▁units	-4242
▁brings	-4243
▁vehicles	-4244
▁score	-4245
▁threat	-4246
▁Mo	-4247
▁Start	-4248
rote	-4249
▁register	-4250
▁laun	-4251
ette	-4252
dd	-4253
▁thousands	-4254
▁Cap	-4255
uce	-4256
▁Star	-4257
▁Char	-4258
▁deals	-4259
▁transl	-4260
▁Pet	-4261
▁rank	-4262
▁panel	-4263
▁harm	-4264
▁Glo	-4265
▁dinner	-4266
SS	-4267
▁valu	-4268
▁Chinese	-4269
▁Island	-4270
▁Its	-4271
umin	-4272
▁Det	-4273
▁counter	-4274
▁reliable	-4275
▁temperature	-4276
▁sets	-4277
▁although	-4278
▁Set	-4279
pping	-4280
▁Another	-4281
itiz	-4282
▁delicious	-4283
▁runs	-4284
▁minute	-4285
▁surg	-4286
▁status	-4287
▁corporate	-4288
leg	-4289
▁investig	-4290
▁Enter	-4291
▁central	-4292
▁Michael	-4293
▁centre	-4294
▁Tem	-4295
▁datab	-4296
▁flat	-4297
▁Angel	-4298
ka	-4299
VE	-4300
▁bill	-4301
▁gain	-4302
▁establish	-4303
▁stores	-4304
▁veget	-4305
▁desk	-4306
▁rain	-4307
▁maximum	-4308
▁cart	-4309
td	-4310
▁Sl	-4311
reed	-4312
unately	-4313
▁changing	-4314
▁knew	-4315
▁adop	-4316
▁PR	-4317
bour	-4318
Ch	-4319
yn	-4320
▁whose	-4321
▁movement	-4322
▁Tom	-4323
rees	-4324
ption	-4325
).<	-4326
iment	-4327
▁wat	-4328
pective	-4329
▁separate	-4330
▁Word	-4331
▁doors	-4332
▁beg	-4333
▁Development	-4334
▁remind	-4335
▁tow	-4336
▁sav	-4337
▁Real	-4338
abilities	-4339
▁relevant	-4340
▁opened	-4341
apter	-4342
▁mail	-4343
body	-4344
▁Mil	-4345
ception	-4346
▁automatically	-4347
▁laws	-4348
▁chair	-4349
azine	-4350
▁Through	-4351
▁corner	-4352
▁manager	-4353
▁Wel	-4354
DA	-4355
▁waste	-4356
▁dete	-4357
▁showing	-4358
▁detailed	-4359
ying	-4360
▁micro	-4361
▁Rob	-4362
▁optim	-4363
▁coverage	-4364
▁den	-4365
craft	-4366
▁fem	-4367
▁ton	-4368
▁Color	-4369
dr	-4370
▁husband	-4371
▁reflect	-4372
▁flowers	-4373
▁parties	-4374
▁Trump	-4375
friend	-4376
▁talking	-4377
▁looked	-4378
▁core	-4379
▁scen	-4380
▁Exper	-4381
▁Where	-4382
MS	-4383
IL	-4384
www	-4385
itar	-4386
▁Keep	-4387
▁brain	-4388
▁memory	-4389
▁dang	-4390
▁characters	-4391
▁assistance	-4392
▁Show	-4393
▁HD	-4394
ushing	-4395
▁documents	-4396
▁shower	-4397
▁square	-4398
▁actual	-4399
▁swim	-4400
vision	-4401
ography	-4402
▁sea	-4403
▁processes	-4404
ech	-4405
▁favour	-4406
▁sport	-4407
▁focused	-4408
▁becoming	-4409
▁older	-4410
▁injury	-4411
apos	-4412
▁sugar	-4413
▁Ty	-4414
▁Central	-4415
▁helpful	-4416
aming	-4417
▁origin	-4418
icians	-4419
▁pray	-4420
▁limit	-4421
▁brands	-4422
▁appointment	-4423
▁Ben	-4424
▁Food	-4425
▁Centre	-4426
▁opin	-4427
osure	-4428
▁Sa	-4429
▁workers	-4430
▁info	-4431
▁Valley	-4432
▁Both	-4433
▁kept	-4434
▁independent	-4435
▁van	-4436
▁provider	-4437
ooper	-4438
▁Mad	-4439
▁concerns	-4440
▁Amazon	-4441
osing	-4442
▁visiting	-4443
estic	-4444
▁accur	-4445
▁industrial	-4446
▁Microsoft	-4447
ograp	-4448
▁dro	-4449
gen	-4450
▁president	-4451
▁enhance	-4452
▁apart	-4453
▁gone	-4454
▁calls	-4455
▁committed	-4456
▁approximately	-4457
▁diagn	-4458
illa	-4459
▁distance	-4460
▁Time	-4461
▁pal	-4462
▁Grand	-4463
▁battery	-4464
▁enjoyed	-4465
ribute	-4466
▁fol	-4467
▁England	-4468
outhern	-4469
▁dial	-4470
▁senior	-4471
▁practical	-4472
ellig	-4473
▁passed	-4474
▁century	-4475
▁catch	-4476
▁assign	-4477
▁trial	-4478
mail	-4479
yer	-4480
▁suff	-4481
rd	-4482
▁comprehensive	-4483
▁smaller	-4484
▁websites	-4485
▁closed	-4486
▁exercise	-4487
icks	-4488
▁controll	-4489
▁continues	-4490
▁south	-4491
PA	-4492
ament	-4493
IG	-4494
▁posts	-4495
uration	-4496
▁busy	-4497
UR	-4498
▁worry	-4499
▁poor	-4500
▁brows	-4501
fol	-4502
▁Lou	-4503
▁district	-4504
▁markets	-4505
▁Fort	-4506
▁Science	-4507
▁records	-4508
▁Fil	-4509
▁decide	-4510
▁ride	-4511
▁Android	-4512
rics	-4513
▁diet	-4514
▁Bet	-4515
▁relationships	-4516
LC	-4517
▁competitive	-4518
TS	-4519
▁prepare	-4520
▁couldn	-4521
▁learned	-4522
▁department	-4523
▁leadership	-4524
▁allowing	-4525
do	-4526
▁bowl	-4527
▁recommended	-4528
▁generally	-4529
▁Their	-4530
▁bird	-4531
▁fear	-4532
▁Que	-4533
fin	-4534
▁transform	-4535
▁spect	-4536
▁starts	-4537
▁decisions	-4538
▁operation	-4539
actions	-4540
▁population	-4541
▁connected	-4542
aser	-4543
arrant	-4544
well	-4545
▁saving	-4546
▁Chic	-4547
▁himself	-4548
▁inspired	-4549
▁terr	-4550
▁expensive	-4551
CA	-4552
▁Miss	-4553
▁properly	-4554
iers	-4555
▁leaves	-4556
▁http	-4557
▁announce	-4558
▁rare	-4559
▁boo	-4560
▁sem	-4561
▁technologies	-4562
▁entertain	-4563
▁guarantee	-4564
▁Inte	-4565
▁spons	-4566
▁Twitter	-4567
▁TO	-4568
▁factors	-4569
▁rat	-4570
▁bought	-4571
uty	-4572
▁minimum	-4573
▁switch	-4574
▁combined	-4575
▁cities	-4576
▁agency	-4577
▁ven	-4578
▁Note	-4579
▁figure	-4580
iest	-4581
▁hospital	-4582
oration	-4583
▁walking	-4584
going	-4585
▁joined	-4586
.)	-4587
▁District	-4588
▁estim	-4589
▁List	-4590
▁force	-4591
▁trees	-4592
een	-4593
bed	-4594
▁joint	-4595
▁plug	-4596
ferences	-4597
DF	-4598
▁lighting	-4599
▁Hum	-4600
▁daughter	-4601
▁fees	-4602
▁attor	-4603
hi	-4604
amm	-4605
▁strategies	-4606
▁sounds	-4607
▁Project	-4608
reek	-4609
life	-4610
▁filled	-4611
ructure	-4612
night	-4613
▁animals	-4614
▁direction	-4615
▁therefore	-4616
▁jump	-4617
eless	-4618
▁Step	-4619
▁Hill	-4620
▁economy	-4621
▁sources	-4622
isl	-4623
▁songs	-4624
▁girls	-4625
▁View	-4626
▁updates	-4627
▁flu	-4628
▁alternative	-4629
▁teachers	-4630
ivered	-4631
▁tend	-4632
▁premium	-4633
▁Stand	-4634
uries	-4635
▁Hist	-4636
▁lights	-4637
▁dram	-4638
▁novel	-4639
▁disapp	-4640
hab	-4641
▁brother	-4642
▁config	-4643
▁fuel	-4644
▁evidence	-4645
▁doctor	-4646
▁Sol	-4647
▁accident	-4648
▁happens	-4649
gage	-4650
▁applied	-4651
▁neighbor	-4652
▁Mel	-4653
alls	-4654
▁Cert	-4655
▁brown	-4656
▁Vir	-4657
▁managed	-4658
gn	-4659
issions	-4660
▁convenient	-4661
▁Follow	-4662
▁Alex	-4663
▁tast	-4664
▁Before	-4665
▁winning	-4666
▁supplies	-4667
▁Academ	-4668
▁lunch	-4669
▁continued	-4670
▁Pan	-4671
▁faith	-4672
antic	-4673
▁Family	-4674
▁Master	-4675
RA	-4676
▁edge	-4677
eed	-4678
▁spending	-4679
▁restaurants	-4680
▁Prov	-4681
▁covers	-4682
▁emp	-4683
▁Mexic	-4684
win	-4685
▁reality	-4686
▁ship	-4687
▁wrote	-4688
▁Card	-4689
BA	-4690
▁military	-4691
iance	-4692
▁Head	-4693
▁environmental	-4694
▁promote	-4695
▁processing	-4696
▁compl	-4697
▁profile	-4698
▁emergency	-4699
ternal	-4700
water	-4701
▁becomes	-4702
▁anti	-4703
▁Town	-4704
▁survey	-4705
▁leaving	-4706
▁Lim	-4707
▁Tor	-4708
liance	-4709
ams	-4710
▁RE	-4711
▁valid	-4712
▁Att	-4713
prise	-4714
▁components	-4715
▁Dig	-4716
▁Christian	-4717
su	-4718
▁funding	-4719
▁grant	-4720
▁Thom	-4721
▁anywhere	-4722
▁Matt	-4723
▁spl	-4724
▁fruit	-4725
▁sizes	-4726
▁mist	-4727
▁Commission	-4728
▁Data	-4729
osen	-4730
▁Information	-4731
▁Social	-4732
▁choices	-4733
iences	-4734
▁tea	-4735
▁teacher	-4736
▁youth	-4737
▁Bath	-4738
▁knows	-4739
▁Award	-4740
▁seconds	-4741
▁Ltd	-4742
▁perhaps	-4743
▁dance	-4744
▁Rad	-4745
▁nav	-4746
CC	-4747
▁Technology	-4748
▁raised	-4749
▁Long	-4750
outs	-4751
iability	-4752
▁absolutely	-4753
iated	-4754
aste	-4755
▁Di	-4756
▁launched	-4757
cean	-4758
▁seat	-4759
ruit	-4760
amin	-4761
▁resolution	-4762
▁federal	-4763
▁north	-4764
▁tail	-4765
▁quot	-4766
▁upload	-4767
▁remains	-4768
iled	-4769
omet	-4770
▁Nor	-4771
▁scene	-4772
▁thick	-4773
▁Tour	-4774
▁CD	-4775
▁guys	-4776
ae	-4777
▁iPhone	-4778
▁Plus	-4779
▁rub	-4780
orthern	-4781
▁compos	-4782
▁dim	-4783
▁butter	-4784
▁reput	-4785
gal	-4786
▁caused	-4787
▁Hotel	-4788
▁Lo	-4789
ownt	-4790
▁scale	-4791
▁OF	-4792
eria	-4793
ups	-4794
▁feedback	-4795
pan	-4796
▁Const	-4797
▁delivered	-4798
inding	-4799
▁IP	-4800
▁society	-4801
▁guest	-4802
ya	-4803
▁manufacturing	-4804
▁performed	-4805
▁Mach	-4806
cap	-4807
▁Lead	-4808
umber	-4809
mes	-4810
▁NY	-4811
▁listen	-4812
ander	-4813
text	-4814
▁exchange	-4815
▁confidence	-4816
chest	-4817
▁adults	-4818
point	-4819
estyle	-4820
▁auto	-4821
▁decl	-4822
IA	-4823
▁dynam	-4824
onus	-4825
▁neck	-4826
isco	-4827
zer	-4828
▁Tur	-4829
▁mort	-4830
▁Learn	-4831
▁flight	-4832
▁educational	-4833
atures	-4834
▁sch	-4835
▁drivers	-4836
▁breakfast	-4837
▁audio	-4838
▁ju	-4839
▁Only	-4840
reens	-4841
▁Using	-4842
▁surrounding	-4843
▁Mer	-4844
nel	-4845
▁epis	-4846
▁crusher	-4847
▁topic	-4848
▁leather	-4849
▁Carol	-4850
▁shap	-4851
▁eating	-4852
▁whatever	-4853
▁Does	-4854
orough	-4855
▁happened	-4856
▁generation	-4857
▁pm	-4858
▁presence	-4859
▁rap	-4860
inct	-4861
▁birthday	-4862
inations	-4863
▁crow	-4864
▁watching	-4865
opped	-4866
▁meant	-4867
ivate	-4868
▁Commit	-4869
▁salt	-4870
▁aspects	-4871
▁commitment	-4872
▁coast	-4873
▁psych	-4874
▁importance	-4875
ini	-4876
▁refer	-4877
▁Clean	-4878
▁AND	-4879
▁illustr	-4880
▁participants	-4881
▁labor	-4882
▁CA	-4883
▁database	-4884
▁depending	-4885
▁Museum	-4886
▁tun	-4887
icies	-4888
▁slightly	-4889
▁sym	-4890
unction	-4891
▁Arts	-4892
▁Republic	-4893
eries	-4894
la	-4895
▁Full	-4896
▁library	-4897
▁gallery	-4898
▁Society	-4899
▁replacement	-4900
▁meal	-4901
▁ID	-4902
appy	-4903
hent	-4904
▁guess	-4905
▁Enjoy	-4906
▁lose	-4907
ifying	-4908
▁honest	-4909
cohol	-4910
ums	-4911
▁Medical	-4912
▁monthly	-4913
▁ring	-4914
▁PM	-4915
▁academic	-4916
▁internal	-4917
▁island	-4918
▁previously	-4919
▁eleg	-4920
▁chemical	-4921
igious	-4922
▁Cy	-4923
ternoon	-4924
▁registered	-4925
▁har	-4926
▁Organ	-4927
CH	-4928
▁secret	-4929
▁luxury	-4930
▁Bed	-4931
▁Review	-4932
▁ban	-4933
▁missing	-4934
▁Hand	-4935
▁Div	-4936
▁elim	-4937
▁earth	-4938
▁Addition	-4939
▁journal	-4940
▁painting	-4941
▁Mont	-4942
rab	-4943
rain	-4944
itness	-4945
▁manual	-4946
▁beat	-4947
▁impl	-4948
▁football	-4949
▁scr	-4950
▁cutting	-4951
ano	-4952
▁princip	-4953
pected	-4954
▁eth	-4955
▁gather	-4956
▁trained	-4957
▁foreign	-4958
ixture	-4959
▁jew	-4960
▁thoughts	-4961
▁cris	-4962
oga	-4963
▁radio	-4964
▁Old	-4965
▁residential	-4966
osh	-4967
▁AS	-4968
▁teeth	-4969
▁supported	-4970
▁chocolate	-4971
▁NOT	-4972
▁agreement	-4973
▁efficiency	-4974
▁ang	-4975
▁coup	-4976
▁boat	-4977
lets	-4978
▁Press	-4979
▁reference	-4980
▁engineering	-4981
▁repe	-4982
▁Gal	-4983
ola	-4984
alend	-4985
BS	-4986
▁providers	-4987
ray	-4988
▁valuable	-4989
ocr	-4990
vention	-4991
▁resource	-4992
lor	-4993
▁Pack	-4994
▁cooking	-4995
▁hire	-4996
▁Spring	-4997
▁Jour	-4998
▁accompl	-4999
▁chart	-5000
▁Sand	-5001
▁leads	-5002
▁rental	-5003
▁sessions	-5004
olars	-5005
▁garage	-5006
▁notes	-5007
▁claims	-5008
▁enable	-5009
▁buildings	-5010
▁Ext	-5011
▁Ce	-5012
▁Qual	-5013
▁Welcome	-5014
▁dish	-5015
▁Aud	-5016
▁diam	-5017
▁coord	-5018
▁trading	-5019
▁Room	-5020
▁typically	-5021
▁studio	-5022
▁Chicago	-5023
alian	-5024
▁putting	-5025
▁Beaut	-5026
▁inspiration	-5027
men	-5028
burg	-5029
▁signed	-5030
▁NE	-5031
itate	-5032
▁mental	-5033
cher	-5034
▁upcoming	-5035
▁Scott	-5036
▁Mass	-5037
▁Invest	-5038
rael	-5039
▁stunning	-5040
▁wal	-5041
▁Equ	-5042
▁highlight	-5043
▁contemporary	-5044
▁rid	-5045
never	-5046
▁Sign	-5047
▁featuring	-5048
▁died	-5049
▁UN	-5050
▁Place	-5051
▁Offic	-5052
cles	-5053
atre	-5054
▁calling	-5055
intage	-5056
▁volume	-5057
known	-5058
▁exclusive	-5059
▁Dou	-5060
▁toward	-5061
esterday	-5062
▁Security	-5063
▁approved	-5064
▁indic	-5065
▁Women	-5066
▁shut	-5067
▁kid	-5068
▁France	-5069
▁Government	-5070
▁faster	-5071
ita	-5072
▁articles	-5073
▁appearance	-5074
▁cultural	-5075
▁worldwide	-5076
onds	-5077
nect	-5078
▁profit	-5079
inating	-5080
▁Looking	-5081
vere	-5082
▁appeal	-5083
oosing	-5084
atin	-5085
bl	-5086
OD	-5087
▁specifically	-5088
▁Vict	-5089
rome	-5090
OP	-5091
▁registration	-5092
▁Sen	-5093
mosp	-5094
mbol	-5095
▁ourselves	-5096
▁perfectly	-5097
▁bringing	-5098
▁wheel	-5099
▁citiz	-5100
▁dura	-5101
▁bike	-5102
▁cheese	-5103
▁raise	-5104
▁mentioned	-5105
▁YOU	-5106
▁obvious	-5107
▁spaces	-5108
▁chicken	-5109
▁occasion	-5110
▁ir	-5111
▁advertising	-5112
ainless	-5113
▁solar	-5114
▁featured	-5115
ulous	-5116
orgeous	-5117
amic	-5118
▁willing	-5119
fortunately	-5120
▁policies	-5121
▁species	-5122
col	-5123
▁Cat	-5124
othes	-5125
▁warrant	-5126
▁disp	-5127
▁Soft	-5128
▁concent	-5129
ensions	-5130
▁consumers	-5131
osis	-5132
▁Atl	-5133
▁pin	-5134
▁cells	-5135
▁deck	-5136
▁supporting	-5137
▁grade	-5138
▁afternoon	-5139
▁regularly	-5140
▁Watch	-5141
rag	-5142
▁styles	-5143
IR	-5144
▁consid	-5145
▁League	-5146
▁discussion	-5147
▁error	-5148
▁fields	-5149
how	-5150
▁surf	-5151
▁bask	-5152
▁stret	-5153
▁settings	-5154
▁familiar	-5155
▁housing	-5156
▁tables	-5157
▁Global	-5158
▁Media	-5159
▁purchased	-5160
▁silver	-5161
▁apps	-5162
▁surgery	-5163
▁seeking	-5164
▁dogs	-5165
▁appe	-5166
▁Ber	-5167
▁Brown	-5168
▁Disc	-5169
isher	-5170
):	-5171
prene	-5172
▁Cre	-5173
eline	-5174
▁ticket	-5175
▁amb	-5176
▁accounts	-5177
ician	-5178
mar	-5179
IF	-5180
idden	-5181
▁depos	-5182
▁participate	-5183
▁Rest	-5184
▁icon	-5185
▁majority	-5186
▁Lord	-5187
▁Network	-5188
▁Manager	-5189
▁wouldn	-5190
ker	-5191
aks	-5192
ius	-5193
▁Bill	-5194
▁climate	-5195
ifications	-5196
▁reached	-5197
▁conduct	-5198
▁compar	-5199
▁Kitchen	-5200
▁iron	-5201
▁poly	-5202
▁coach	-5203
▁Hope	-5204
Wh	-5205
▁teach	-5206
azz	-5207
▁incredible	-5208
▁obtain	-5209
▁Committee	-5210
iner	-5211
▁vary	-5212
▁quiet	-5213
reprene	-5214
▁showed	-5215
▁thus	-5216
▁Buy	-5217
▁Festival	-5218
▁responsibility	-5219
▁delight	-5220
▁Ideas	-5221
edy	-5222
▁Series	-5223
ki	-5224
hus	-5225
alog	-5226
verse	-5227
▁measures	-5228
van	-5229
▁truth	-5230
▁houses	-5231
▁presentation	-5232
▁Squ	-5233
▁sauce	-5234
add	-5235
OC	-5236
▁quant	-5237
▁functions	-5238
▁remote	-5239
rim	-5240
▁Franc	-5241
UT	-5242
▁anc	-5243
▁Fund	-5244
▁gun	-5245
SA	-5246
▁shoes	-5247
etime	-5248
▁throw	-5249
▁chain	-5250
This	-5251
▁Canad	-5252
vell	-5253
▁ath	-5254
▁nurs	-5255
▁hundreds	-5256
▁otherwise	-5257
▁boost	-5258
▁joy	-5259
▁appears	-5260
▁Person	-5261
kin	-5262
list	-5263
▁CEO	-5264
nergy	-5265
lying	-5266
▁goods	-5267
ait	-5268
▁instructions	-5269
▁pock	-5270
▁accessories	-5271
▁Los	-5272
▁licens	-5273
▁advis	-5274
▁brief	-5275
▁scheduled	-5276
▁employee	-5277
▁researc	-5278
▁mostly	-5279
ricult	-5280
▁Children	-5281
▁Pub	-5282
▁Virgin	-5283
▁Germany	-5284
▁golf	-5285
▁neighborhood	-5286
ario	-5287
▁appreciate	-5288
▁accurate	-5289
▁totally	-5290
▁Main	-5291
▁kick	-5292
▁introduced	-5293
▁sides	-5294
▁greatest	-5295
no	-5296
flow	-5297
▁Smith	-5298
▁Tim	-5299
▁trend	-5300
▁Israel	-5301
▁Access	-5302
▁certified	-5303
▁improved	-5304
▁signs	-5305
▁animal	-5306
aration	-5307
▁topics	-5308
▁Den	-5309
▁therapy	-5310
berg	-5311
▁element	-5312
▁chosen	-5313
▁tut	-5314
▁Small	-5315
urban	-5316
▁Very	-5317
▁Bur	-5318
▁Support	-5319
▁entertainment	-5320
▁atmosp	-5321
▁Australian	-5322
▁walls	-5323
▁campus	-5324
▁qualified	-5325
▁actions	-5326
▁fixed	-5327
▁Guys	-5328
▁ment	-5329
gment	-5330
ression	-5331
▁ON	-5332
▁restrict	-5333
REE	-5334
▁Students	-5335
▁hearing	-5336
▁Table	-5337
▁glad	-5338
▁Bas	-5339
▁Union	-5340
▁Jew	-5341
igan	-5342
▁liqu	-5343
▁cake	-5344
▁mini	-5345
▁sheet	-5346
▁Tre	-5347
iors	-5348
▁infrast	-5349
cious	-5350
▁manner	-5351
▁George	-5352
▁simpl	-5353
▁milk	-5354
▁Gar	-5355
inder	-5356
rition	-5357
▁predict	-5358
▁consumer	-5359
▁Oper	-5360
▁About	-5361
▁Ham	-5362
▁electronic	-5363
▁crew	-5364
cont	-5365
▁arm	-5366
▁Win	-5367
▁owned	-5368
road	-5369
▁recovery	-5370
▁Cup	-5371
▁rot	-5372
▁cute	-5373
▁dental	-5374
▁ben	-5375
riage	-5376
hetic	-5377
ersey	-5378
▁orders	-5379
MA	-5380
▁effectively	-5381
▁Test	-5382
▁celebrate	-5383
▁Hi	-5384
▁template	-5385
▁Lab	-5386
▁dating	-5387
▁German	-5388
▁confirm	-5389
▁Shop	-5390
▁vote	-5391
▁du	-5392
ificate	-5393
▁removed	-5394
han	-5395
▁hardware	-5396
▁uns	-5397
▁organic	-5398
▁successfully	-5399
▁Ill	-5400
▁civil	-5401
▁gear	-5402
▁hosting	-5403
while	-5404
▁ended	-5405
▁charges	-5406
▁fle	-5407
▁mode	-5408
▁depart	-5409
▁favourite	-5410
▁fellow	-5411
▁behavior	-5412
▁tight	-5413
▁MP	-5414
▁equipped	-5415
▁symbol	-5416
▁Prote	-5417
▁designer	-5418
iat	-5419
NA	-5420
▁supports	-5421
orable	-5422
▁monit	-5423
otton	-5424
▁Cost	-5425
▁Cond	-5426
fection	-5427
▁candidates	-5428
▁feels	-5429
weight	-5430
▁apartment	-5431
▁Those	-5432
▁plate	-5433
▁pu	-5434
▁asking	-5435
▁jack	-5436
▁belie	-5437
bre	-5438
▁returned	-5439
erts	-5440
▁partnership	-5441
▁kit	-5442
eper	-5443
▁everyday	-5444
arp	-5445
▁license	-5446
▁programme	-5447
▁meat	-5448
poses	-5449
▁rapid	-5450
▁university	-5451
▁machines	-5452
▁sympt	-5453
▁Frank	-5454
zen	-5455
made	-5456
▁rise	-5457
▁agent	-5458
▁Did	-5459
▁output	-5460
athe	-5461
▁moist	-5462
▁sample	-5463
vis	-5464
▁Admin	-5465
▁concrete	-5466
▁diverse	-5467
▁Saf	-5468
▁Ul	-5469
▁quote	-5470
▁Wil	-5471
▁foods	-5472
▁ur	-5473
▁ap	-5474
▁Police	-5475
▁kinds	-5476
▁integrated	-5477
▁fulf	-5478
▁construct	-5479
west	-5480
▁Western	-5481
etic	-5482
rier	-5483
elines	-5484
▁poll	-5485
▁clearly	-5486
▁lifestyle	-5487
orter	-5488
▁label	-5489
▁Vide	-5490
lines	-5491
▁manufacturer	-5492
▁submit	-5493
umes	-5494
▁landscape	-5495
▁Academy	-5496
roy	-5497
▁plays	-5498
▁Key	-5499
▁Ok	-5500
▁Asia	-5501
▁yellow	-5502
▁mel	-5503
▁edition	-5504
▁push	-5505
▁Which	-5506
aked	-5507
▁outstanding	-5508
▁Control	-5509
▁Italian	-5510
ibilities	-5511
▁rear	-5512
▁occup	-5513
quality	-5514
▁ris	-5515
▁Er	-5516
▁Creat	-5517
ring	-5518
▁Trust	-5519
▁Kore	-5520
▁Japanese	-5521
▁Cook	-5522
▁gifts	-5523
▁=	-5524
asts	-5525
▁sitting	-5526
▁awareness	-5527
▁village	-5528
▁searching	-5529
▁oven	-5530
ospit	-5531
▁ec	-5532
▁legisl	-5533
▁logo	-5534
▁stri	-5535
▁Search	-5536
fficient	-5537
▁officials	-5538
▁Louis	-5539
▁serves	-5540
▁adventure	-5541
▁negative	-5542
▁tests	-5543
▁Land	-5544
king	-5545
liers	-5546
▁infrastructure	-5547
▁Fair	-5548
oup	-5549
▁Max	-5550
▁purposes	-5551
▁debt	-5552
▁route	-5553
▁despite	-5554
ulty	-5555
▁Log	-5556
▁mine	-5557
▁Having	-5558
▁Join	-5559
pass	-5560
▁African	-5561
▁motiv	-5562
ora	-5563
▁Royal	-5564
▁Van	-5565
rowse	-5566
▁flexible	-5567
▁thread	-5568
▁nom	-5569
▁destination	-5570
▁desire	-5571
▁depend	-5572
▁interests	-5573
▁victim	-5574
ilst	-5575
▁Men	-5576
▁remaining	-5577
▁Bal	-5578
ags	-5579
▁domain	-5580
▁bread	-5581
▁creation	-5582
▁collaboration	-5583
▁keeps	-5584
istan	-5585
▁holds	-5586
▁privacy	-5587
▁Farm	-5588
▁wid	-5589
▁airport	-5590
▁Way	-5591
abled	-5592
▁innovation	-5593
▁readers	-5594
asp	-5595
▁carefully	-5596
▁paying	-5597
▁workshop	-5598
▁Ol	-5599
LA	-5600
▁input	-5601
▁ped	-5602
▁holding	-5603
▁perman	-5604
▁Supp	-5605
▁winner	-5606
▁accessible	-5607
▁Prem	-5608
orry	-5609
ua	-5610
▁!	-5611
case	-5612
▁burn	-5613
▁invent	-5614
▁revenue	-5615
▁answers	-5616
race	-5617
▁Live	-5618
▁bonus	-5619
olutions	-5620
▁tasks	-5621
with	-5622
▁begins	-5623
▁intellig	-5624
▁unless	-5625
▁Mid	-5626
▁ages	-5627
tending	-5628
owntown	-5629
▁cable	-5630
tered	-5631
arsh	-5632
▁Nov	-5633
alendar	-5634
spe	-5635
▁SP	-5636
▁Peter	-5637
ighter	-5638
▁aid	-5639
▁trends	-5640
ords	-5641
itage	-5642
▁tough	-5643
▁crowd	-5644
▁electrical	-5645
▁procedures	-5646
▁alcohol	-5647
▁renew	-5648
▁Applic	-5649
▁impressive	-5650
▁pleased	-5651
▁elig	-5652
▁Minister	-5653
▁ign	-5654
ias	-5655
▁height	-5656
▁described	-5657
can	-5658
▁thorough	-5659
▁mouth	-5660
▁distribution	-5661
▁pure	-5662
▁printed	-5663
▁executive	-5664
▁Ep	-5665
▁filter	-5666
away	-5667
▁examples	-5668
▁closely	-5669
▁grown	-5670
▁authent	-5671
▁discovered	-5672
▁AT	-5673
anged	-5674
▁Mic	-5675
▁procedure	-5676
▁Victor	-5677
▁Wal	-5678
▁Energy	-5679
▁reb	-5680
dered	-5681
▁CH	-5682
phas	-5683
▁Lu	-5684
▁stre	-5685
rupt	-5686
ushed	-5687
▁MS	-5688
▁forest	-5689
▁vacation	-5690
▁expectations	-5691
▁intended	-5692
achel	-5693
▁essay	-5694
hand	-5695
▁prompt	-5696
▁influence	-5697
▁knowing	-5698
▁dates	-5699
▁Earth	-5700
otic	-5701
▁MA	-5702
▁Dev	-5703
cover	-5704
▁Mult	-5705
yc	-5706
▁photography	-5707
▁tur	-5708
ato	-5709
▁Coast	-5710
▁Maybe	-5711
▁Print	-5712
▁arts	-5713
▁context	-5714
▁crim	-5715
gl	-5716
rid	-5717
▁gorgeous	-5718
▁decades	-5719
▁cop	-5720
GB	-5721
▁channel	-5722
▁row	-5723
▁fitness	-5724
▁Pass	-5725
▁complic	-5726
▁savings	-5727
▁patterns	-5728
▁Conference	-5729
▁veter	-5730
▁voc	-5731
▁assets	-5732
▁chat	-5733
▁informed	-5734
▁agencies	-5735
▁tub	-5736
unting	-5737
▁broken	-5738
▁minor	-5739
▁household	-5740
▁degrees	-5741
▁guy	-5742
▁possess	-5743
▁stars	-5744
▁Robert	-5745
▁administration	-5746
▁Walk	-5747
ena	-5748
▁manufacturers	-5749
▁entr	-5750
▁Bud	-5751
▁choosing	-5752
▁wearing	-5753
nament	-5754
ste	-5755
▁phil	-5756
irms	-5757
▁shares	-5758
▁improvement	-5759
date	-5760
▁ease	-5761
▁reduced	-5762
▁clinical	-5763
▁Digital	-5764
▁rom	-5765
▁vs	-5766
▁considering	-5767
▁Sometimes	-5768
▁belong	-5769
▁facil	-5770
▁eventually	-5771
▁Insurance	-5772
▁Game	-5773
stone	-5774
▁tab	-5775
▁married	-5776
▁assemb	-5777
▁Author	-5778
uits	-5779
▁planned	-5780
olic	-5781
▁oppos	-5782
▁vit	-5783
▁Paris	-5784
▁Span	-5785
▁nearby	-5786
▁meetings	-5787
▁healthcare	-5788
▁bound	-5789
▁hyd	-5790
▁Canadian	-5791
▁investors	-5792
ala	-5793
poration	-5794
▁circum	-5795
▁Living	-5796
▁fourth	-5797
▁constantly	-5798
▁messages	-5799
▁Party	-5800
You	-5801
▁Opt	-5802
▁End	-5803
▁shops	-5804
UN	-5805
▁Need	-5806
CE	-5807
▁photograp	-5808
▁Try	-5809
ache	-5810
▁breath	-5811
ailable	-5812
▁Wild	-5813
olve	-5814
▁Finally	-5815
▁administr	-5816
yard	-5817
odies	-5818
TA	-5819
anda	-5820
▁forg	-5821
Sh	-5822
▁explain	-5823
▁Congress	-5824
▁rug	-5825
ella	-5826
▁der	-5827
▁recorded	-5828
▁offices	-5829
▁opinion	-5830
▁mic	-5831
▁Sup	-5832
▁instance	-5833
▁payments	-5834
▁upper	-5835
▁Come	-5836
▁Chair	-5837
▁Haw	-5838
▁musical	-5839
merce	-5840
▁regional	-5841
▁Nav	-5842
▁challenging	-5843
▁bigger	-5844
▁foundation	-5845
▁movies	-5846
▁recognized	-5847
▁Angeles	-5848
▁possibly	-5849
igr	-5850
▁fishing	-5851
icial	-5852
▁situations	-5853
▁arrest	-5854
▁LED	-5855
▁mountain	-5856
▁fo	-5857
"<	-5858
▁Mobile	-5859
▁beer	-5860
▁inches	-5861
▁FREE	-5862
▁die	-5863
▁Gen	-5864
▁facing	-5865
▁carried	-5866
▁enthus	-5867
▁Journal	-5868
IV	-5869
▁Chris	-5870
▁inch	-5871
▁standing	-5872
▁realize	-5873
▁rail	-5874
▁employment	-5875
▁univers	-5876
▁codes	-5877
▁atmosphere	-5878
iveness	-5879
▁Garden	-5880
▁decre	-5881
▁tom	-5882
▁battle	-5883
▁Comple	-5884
▁Ver	-5885
ras	-5886
▁affected	-5887
luding	-5888
▁nine	-5889
anges	-5890
▁bags	-5891
▁Know	-5892
▁yesterday	-5893
▁conversation	-5894
▁causes	-5895
▁sequ	-5896
▁freed	-5897
lay	-5898
ello	-5899
acks	-5900
▁Proper	-5901
bur	-5902
▁adapt	-5903
ENT	-5904
▁Ma	-5905
▁fro	-5906
▁Cross	-5907
▁carpet	-5908
▁external	-5909
▁DV	-5910
▁Library	-5911
berry	-5912
▁Ire	-5913
▁Second	-5914
lete	-5915
▁symptoms	-5916
▁attra	-5917
iter	-5918
▁matters	-5919
▁protected	-5920
▁Low	-5921
▁dent	-5922
▁Expl	-5923
▁tagged	-5924
▁layer	-5925
▁vir	-5926
▁ends	-5927
front	-5928
resp	-5929
▁satisfaction	-5930
▁receiving	-5931
▁Instead	-5932
▁writer	-5933
▁Store	-5934
▁AR	-5935
▁Travel	-5936
▁Current	-5937
gs	-5938
▁cos	-5939
▁Mexico	-5940
▁dollars	-5941
▁er	-5942
▁Sar	-5943
folio	-5944
▁Vill	-5945
▁Hospital	-5946
▁skill	-5947
▁Help	-5948
▁fif	-5949
▁Cas	-5950
▁wet	-5951
▁assessment	-5952
equ	-5953
▁female	-5954
▁lived	-5955
▁twice	-5956
▁mixture	-5957
▁native	-5958
▁earned	-5959
▁entreprene	-5960
▁appeared	-5961
ye	-5962
▁soul	-5963
▁editor	-5964
▁arrived	-5965
▁loves	-5966
▁Jose	-5967
▁Pac	-5968
▁PA	-5969
otten	-5970
▁Price	-5971
vy	-5972
▁Little	-5973
▁engage	-5974
▁vital	-5975
▁rule	-5976
▁excess	-5977
▁Charl	-5978
▁mirr	-5979
kes	-5980
’.	-5981
▁television	-5982
▁emphas	-5983
▁treated	-5984
▁Pin	-5985
▁passeng	-5986
▁Dub	-5987
▁Instagram	-5988
▁creates	-5989
inds	-5990
▁unc	-5991
▁powder	-5992
▁conver	-5993
▁Jul	-5994
SP	-5995
fa	-5996
▁transportation	-5997
▁yes	-5998
▁Jim	-5999
profit	-6000
▁bottle	-6001
▁Bi	-6002
▁basket	-6003
▁Middle	-6004
▁historical	-6005
▁factor	-6006
▁Tit	-6007
yan	-6008
▁Hard	-6009
▁specialist	-6010
▁horse	-6011
▁Week	-6012
▁conducted	-6013
▁PDF	-6014
▁pink	-6015
▁Made	-6016
▁vend	-6017
▁password	-6018
▁Assist	-6019
▁Code	-6020
▁domestic	-6021
▁operate	-6022
CT	-6023
▁root	-6024
▁arrive	-6025
▁stands	-6026
lights	-6027
▁classroom	-6028
▁river	-6029
gend	-6030
▁talent	-6031
▁extended	-6032
▁command	-6033
▁doubt	-6034
▁Cast	-6035
▁alle	-6036
▁issued	-6037
▁Champions	-6038
okes	-6039
▁cooper	-6040
▁museum	-6041
wing	-6042
▁consultation	-6043
▁mixed	-6044
but	-6045
▁debut	-6046
▁Mov	-6047
▁Fun	-6048
▁Happy	-6049
illiant	-6050
▁gro	-6051
irmed	-6052
▁Execut	-6053
▁distinct	-6054
▁hotels	-6055
▁filed	-6056
▁removal	-6057
▁charm	-6058
▁CO	-6059
▁missed	-6060
▁festival	-6061
▁Works	-6062
▁clothes	-6063
▁accepted	-6064
▁Systems	-6065
tr	-6066
▁negot	-6067
▁Further	-6068
▁researchers	-6069
▁Flo	-6070
▁significantly	-6071
▁Scot	-6072
▁Penn	-6073
▁Wi	-6074
▁sustainable	-6075
▁moments	-6076
PR	-6077
▁Thomas	-6078
▁Commun	-6079
▁fort	-6080
▁returns	-6081
xy	-6082
▁Id	-6083
▁injuries	-6084
▁viewed	-6085
▁AD	-6086
▁charged	-6087
▁Smart	-6088
kins	-6089
▁clothing	-6090
▁reputation	-6091
▁ongoing	-6092
oral	-6093
▁treatments	-6094
dem	-6095
▁agents	-6096
▁interface	-6097
▁membership	-6098
▁engagement	-6099
ardens	-6100
▁Should	-6101
▁improving	-6102
▁attorney	-6103
▁sister	-6104
▁perspective	-6105
▁lessons	-6106
▁guitar	-6107
▁kill	-6108
▁pregn	-6109
▁availability	-6110
▁prop	-6111
▁regul	-6112
▁lapt	-6113
▁virtual	-6114
▁wash	-6115
which	-6116
obby	-6117
▁Human	-6118
▁pod	-6119
▁strategic	-6120
▁Auto	-6121
▁elegant	-6122
▁pricing	-6123
▁managing	-6124
▁blend	-6125
▁routine	-6126
▁tall	-6127
▁hang	-6128
cers	-6129
▁Ball	-6130
▁finest	-6131
▁Sports	-6132
▁citizens	-6133
▁organized	-6134
▁episode	-6135
▁medicine	-6136
▁nor	-6137
comes	-6138
weet	-6139
iece	-6140
plates	-6141
▁incl	-6142
▁transition	-6143
▁Econom	-6144
▁commission	-6145
▁emotional	-6146
tle	-6147
afe	-6148
▁printing	-6149
▁hall	-6150
po	-6151
▁involve	-6152
oston	-6153
▁guidance	-6154
acious	-6155
▁Georg	-6156
▁identified	-6157
▁superior	-6158
▁invited	-6159
▁awards	-6160
▁mining	-6161
▁heating	-6162
▁tested	-6163
▁mal	-6164
▁Box	-6165
▁smile	-6166
▁flavor	-6167
EE	-6168
quir	-6169
▁founded	-6170
▁Meet	-6171
▁monitor	-6172
▁positions	-6173
▁Sn	-6174
▁Select	-6175
▁historic	-6176
▁Virginia	-6177
▁Point	-6178
▁Carolina	-6179
▁Spanish	-6180
▁Link	-6181
▁frequently	-6182
rency	-6183
▁institutions	-6184
▁km	-6185
odel	-6186
▁Bow	-6187
▁Chief	-6188
▁proposed	-6189
▁confident	-6190
▁Jud	-6191
▁tech	-6192
▁turns	-6193
▁Italy	-6194
▁Boy	-6195
▁dynamic	-6196
▁industries	-6197
▁taught	-6198
▁monitoring	-6199
▁Pri	-6200
hire	-6201
za	-6202
▁awarded	-6203
▁argu	-6204
▁description	-6205
▁cycle	-6206
▁closer	-6207
▁depth	-6208
▁Airport	-6209
▁revealed	-6210
▁Mike	-6211
▁boys	-6212
▁loans	-6213
▁caught	-6214
▁advoc	-6215
ansion	-6216
▁attached	-6217
erves	-6218
▁exhibition	-6219
othe	-6220
uine	-6221
▁athlet	-6222
▁publish	-6223
▁scientific	-6224
▁surprise	-6225
▁typical	-6226
ennis	-6227
isation	-6228
▁..	-6229
▁Ireland	-6230
▁magazine	-6231
▁Want	-6232
▁Building	-6233
▁circumst	-6234
TC	-6235
gration	-6236
▁enables	-6237
related	-6238
▁performing	-6239
He	-6240
▁Ent	-6241
ta	-6242
▁films	-6243
▁graduate	-6244
▁Sky	-6245
▁architecture	-6246
▁pil	-6247
▁Russian	-6248
▁usual	-6249
site	-6250
▁booking	-6251
▁contra	-6252
igration	-6253
▁teen	-6254
▁Jun	-6255
writ	-6256
holder	-6257
▁carbon	-6258
elry	-6259
mond	-6260
▁collected	-6261
▁Young	-6262
irty	-6263
▁recipes	-6264
▁massive	-6265
▁picked	-6266
▁rough	-6267
▁obl	-6268
▁implementation	-6269
▁proven	-6270
ouch	-6271
▁pharm	-6272
ears	-6273
▁mold	-6274
▁Du	-6275
▁attended	-6276
▁browser	-6277
friendly	-6278
▁capture	-6279
▁ensuring	-6280
▁ultimate	-6281
utch	-6282
▁Zeal	-6283
▁weekly	-6284
▁Ken	-6285
▁Account	-6286
▁Exam	-6287
▁Santa	-6288
iano	-6289
▁trouble	-6290
ban	-6291
▁tank	-6292
▁Martin	-6293
▁deploy	-6294
terior	-6295
▁tap	-6296
▁Quality	-6297
▁soph	-6298
LS	-6299
▁preparation	-6300
▁scholars	-6301
yers	-6302
▁Orig	-6303
▁EU	-6304
lymp	-6305
▁bless	-6306
▁Training	-6307
▁determined	-6308
▁colours	-6309
▁versions	-6310
▁cabinet	-6311
▁reward	-6312
erse	-6313
▁urban	-6314
**	-6315
▁default	-6316
▁exceptional	-6317
▁Image	-6318
arian	-6319
▁attractive	-6320
▁speaking	-6321
what	-6322
▁meals	-6323
uction	-6324
▁instruct	-6325
neys	-6326
Com	-6327
▁Video	-6328
▁Lin	-6329
▁Marketing	-6330
abet	-6331
▁purs	-6332
▁Three	-6333
▁swimming	-6334
▁whenever	-6335
▁climb	-6336
▁Modern	-6337
aren	-6338
RI	-6339
▁protein	-6340
▁Dom	-6341
stal	-6342
▁Steel	-6343
▁stretch	-6344
▁Local	-6345
▁Conc	-6346
rum	-6347
HS	-6348
▁crack	-6349
ether	-6350
▁Summer	-6351
▁objects	-6352
▁compens	-6353
orders	-6354
edia	-6355
▁Visit	-6356
cue	-6357
▁Report	-6358
▁desired	-6359
esh	-6360
▁wealth	-6361
ndom	-6362
▁SU	-6363
▁platforms	-6364
arrow	-6365
proof	-6366
▁whom	-6367
▁Zealand	-6368
▁compat	-6369
▁retire	-6370
▁extension	-6371
▁Kn	-6372
▁Area	-6373
▁liquid	-6374
▁grab	-6375
▁BE	-6376
▁Boston	-6377
▁vibr	-6378
tain	-6379
▁Professional	-6380
▁Games	-6381
▁candidate	-6382
▁Times	-6383
▁Engineering	-6384
iana	-6385
."<	-6386
▁Therefore	-6387
▁technique	-6388
asant	-6389
pection	-6390
▁sad	-6391
oured	-6392
▁identity	-6393
▁affil	-6394
elly	-6395
▁acid	-6396
▁Southern	-6397
gas	-6398
▁travell	-6399
▁sink	-6400
%.	-6401
▁boxes	-6402
PC	-6403
▁McC	-6404
car	-6405
▁Decor	-6406
▁listing	-6407
▁Choose	-6408
▁tooth	-6409
▁packages	-6410
▁bes	-6411
iversary	-6412
hors	-6413
itable	-6414
▁Turn	-6415
▁failed	-6416
▁Give	-6417
▁dust	-6418
▁Right	-6419
▁grass	-6420
ca	-6421
▁conflic	-6422
▁adds	-6423
▁Jeff	-6424
▁Secret	-6425
▁Ford	-6426
▁compare	-6427
▁election	-6428
▁Ash	-6429
▁repairs	-6430
arks	-6431
▁joining	-6432
▁hospit	-6433
▁fell	-6434
▁Page	-6435
▁adm	-6436
worth	-6437
astern	-6438
▁column	-6439
▁Financial	-6440
▁Girl	-6441
da	-6442
▁Sales	-6443
bles	-6444
▁drugs	-6445
▁Would	-6446
umni	-6447
irts	-6448
▁Ut	-6449
va	-6450
▁chief	-6451
▁west	-6452
▁DC	-6453
▁consists	-6454
▁bedrooms	-6455
▁OR	-6456
▁wooden	-6457
▁contribute	-6458
▁investigation	-6459
▁concerned	-6460
▁Night	-6461
▁tomorrow	-6462
▁mainly	-6463
▁soil	-6464
▁Silver	-6465
▁vast	-6466
▁hel	-6467
▁freedom	-6468
▁killed	-6469
▁Russia	-6470
▁buyers	-6471
▁stainless	-6472
oh	-6473
odge	-6474
▁sole	-6475
▁panels	-6476
resents	-6477
▁factory	-6478
▁Awards	-6479
▁flash	-6480
GE	-6481
lywood	-6482
secut	-6483
▁vintage	-6484
▁Columb	-6485
▁drawing	-6486
▁Though	-6487
▁alumin	-6488
▁Es	-6489
ava	-6490
isters	-6491
▁rein	-6492
▁solve	-6493
TH	-6494
▁finance	-6495
class	-6496
▁capable	-6497
▁OS	-6498
▁Jersey	-6499
▁undert	-6500
▁anx	-6501
FL	-6502
▁Four	-6503
▁shock	-6504
▁param	-6505
▁bear	-6506
▁severe	-6507
▁networks	-6508
aturally	-6509
▁random	-6510
▁pun	-6511
▁ther	-6512
▁handling	-6513
real	-6514
izza	-6515
▁Olymp	-6516
BI	-6517
▁hook	-6518
▁holidays	-6519
cket	-6520
remony	-6521
nic	-6522
▁scored	-6523
oses	-6524
▁turning	-6525
▁contest	-6526
▁alongside	-6527
▁Executive	-6528
izer	-6529
Re	-6530
▁regulations	-6531
ading	-6532
▁enjoying	-6533
▁Oil	-6534
▁noted	-6535
▁dangerous	-6536
▁Form	-6537
▁Install	-6538
▁reporting	-6539
▁compr	-6540
▁flower	-6541
▁failure	-6542
▁developers	-6543
▁risks	-6544
ossible	-6545
▁seemed	-6546
▁portfolio	-6547
▁blogg	-6548
▁functional	-6549
eller	-6550
▁synt	-6551
▁forces	-6552
cm	-6553
MP	-6554
▁elev	-6555
▁bond	-6556
▁toile	-6557
▁reasonable	-6558
▁happening	-6559
▁sac	-6560
ucle	-6561
apping	-6562
build	-6563
▁coc	-6564
????	-6565
print	-6566
asters	-6567
▁unex	-6568
enced	-6569
▁rice	-6570
ingly	-6571
▁Cra	-6572
▁witness	-6573
▁https	-6574
▁normally	-6575
▁Hor	-6576
▁ceiling	-6577
▁bench	-6578
osoph	-6579
▁suppliers	-6580
▁instrument	-6581
▁king	-6582
▁imagine	-6583
▁Rev	-6584
▁honor	-6585
▁phase	-6586
▁venue	-6587
▁licensed	-6588
▁flooring	-6589
▁thin	-6590
▁defense	-6591
▁achieved	-6592
▁Mur	-6593
▁Perform	-6594
▁Comput	-6595
▁Being	-6596
▁Democr	-6597
▁twe	-6598
ikes	-6599
▁Copy	-6600
▁originally	-6601
▁cro	-6602
Fi	-6603
▁graphics	-6604
▁linked	-6605
▁tiny	-6606
▁Unfortunately	-6607
▁motion	-6608
▁represents	-6609
▁sky	-6610
iser	-6611
▁stated	-6612
▁generate	-6613
▁contrast	-6614
▁Federal	-6615
▁county	-6616
▁presents	-6617
▁hidden	-6618
▁flood	-6619
▁san	-6620
olved	-6621
▁ran	-6622
▁capabilities	-6623
▁crucial	-6624
uts	-6625
▁visited	-6626
sung	-6627
▁FOR	-6628
▁Sale	-6629
Tube	-6630
ensity	-6631
▁grew	-6632
▁renov	-6633
▁eligible	-6634
▁magn	-6635
▁purchasing	-6636
▁officer	-6637
▁noticed	-6638
aired	-6639
);	-6640
▁agreed	-6641
▁aspect	-6642
SC	-6643
▁Mean	-6644
▁confirmed	-6645
▁mur	-6646
▁mile	-6647
inem	-6648
▁hosted	-6649
▁SC	-6650
▁mut	-6651
▁lad	-6652
▁draft	-6653
ulpt	-6654
iking	-6655
under	-6656
▁fasc	-6657
▁proof	-6658
▁pride	-6659
pes	-6660
▁disappoint	-6661
▁spiritual	-6662
▁Def	-6663
▁rose	-6664
amps	-6665
▁seats	-6666
▁Disney	-6667
▁Repair	-6668
▁Ohio	-6669
▁tack	-6670
▁incorpor	-6671
lace	-6672
▁hopes	-6673
▁banks	-6674
▁consequ	-6675
oking	-6676
▁Lee	-6677
▁diagram	-6678
▁Hon	-6679
▁categories	-6680
▁cotton	-6681
▁recording	-6682
▁firms	-6683
udden	-6684
duate	-6685
▁trig	-6686
▁entered	-6687
▁spin	-6688
▁Sea	-6689
eration	-6690
▁tracks	-6691
▁Jon	-6692
▁Despite	-6693
▁CR	-6694
▁volunteers	-6695
▁Beautiful	-6696
▁patio	-6697
▁hero	-6698
▁yard	-6699
▁Ell	-6700
ircle	-6701
ani	-6702
▁whilst	-6703
▁syn	-6704
▁ancient	-6705
alle	-6706
▁nutrition	-6707
▁Quest	-6708
▁index	-6709
▁trib	-6710
▁absor	-6711
▁equal	-6712
▁sight	-6713
▁unable	-6714
▁counsel	-6715
aze	-6716
▁Gallery	-6717
▁fest	-6718
▁pill	-6719
▁Industr	-6720
▁combine	-6721
▁Save	-6722
hem	-6723
hew	-6724
▁utility	-6725
▁upgrade	-6726
▁Drive	-6727
▁ear	-6728
▁Guide	-6729
▁scan	-6730
▁superv	-6731
▁eggs	-6732
▁ast	-6733
▁ordered	-6734
▁likes	-6735
▁History	-6736
▁flag	-6737
▁Pract	-6738
▁Cath	-6739
holders	-6740
▁consistent	-6741
iances	-6742
▁USB	-6743
▁Americans	-6744
▁committee	-6745
▁immediate	-6746
▁Autom	-6747
▁flour	-6748
▁DI	-6749
▁Put	-6750
▁Michigan	-6751
▁scheme	-6752
▁exposure	-6753
▁Machine	-6754
▁entirely	-6755
vas	-6756
▁HP	-6757
▁memories	-6758
▁newly	-6759
▁coloring	-6760
▁proceed	-6761
▁Remember	-6762
gers	-6763
▁Stone	-6764
▁Hen	-6765
▁odd	-6766
▁rating	-6767
▁Tax	-6768
▁anticip	-6769
▁displayed	-6770
▁enterprise	-6771
▁precise	-6772
bury	-6773
bra	-6774
▁interactive	-6775
▁communications	-6776
you	-6777
▁calendar	-6778
awn	-6779
▁vari	-6780
▁Think	-6781
▁FL	-6782
▁floors	-6783
▁wireless	-6784
▁permanent	-6785
▁Colorado	-6786
▁rig	-6787
▁Pacific	-6788
▁widely	-6789
inyl	-6790
▁weap	-6791
▁Run	-6792
ially	-6793
▁array	-6794
▁increases	-6795
▁mortgage	-6796
anger	-6797
▁weak	-6798
▁LLC	-6799
igned	-6800
apore	-6801
▁stylish	-6802
itz	-6803
▁criminal	-6804
▁formal	-6805
zil	-6806
▁circumstances	-6807
▁insight	-6808
▁bars	-6809
▁Pop	-6810
ools	-6811
▁relatively	-6812
▁Son	-6813
▁tells	-6814
▁tiss	-6815
▁compliance	-6816
▁clicking	-6817
II	-6818
▁wallpaper	-6819
▁Mountain	-6820
▁accommodation	-6821
▁Toy	-6822
▁listening	-6823
▁diss	-6824
▁Members	-6825
▁expenses	-6826
▁marriage	-6827
inn	-6828
▁YouTube	-6829
ographic	-6830
▁Phys	-6831
▁skilled	-6832
▁Bathroom	-6833
celer	-6834
▁Environment	-6835
▁Rose	-6836
▁papers	-6837
alled	-6838
▁Safety	-6839
▁Brand	-6840
▁figures	-6841
wear	-6842
▁Job	-6843
▁formed	-6844
▁Cover	-6845
▁guaranteed	-6846
▁personally	-6847
mary	-6848
▁stopped	-6849
▁unf	-6850
▁dishes	-6851
▁ok	-6852
▁Pot	-6853
▁ol	-6854
▁shooting	-6855
ansas	-6856
▁Arab	-6857
▁por	-6858
▁component	-6859
▁submitted	-6860
host	-6861
▁priority	-6862
▁LA	-6863
▁delivering	-6864
▁designers	-6865
lyn	-6866
▁SEO	-6867
▁Northern	-6868
▁Bang	-6869
oir	-6870
▁Coll	-6871
▁coat	-6872
▁dreams	-6873
adow	-6874
▁Easy	-6875
▁Country	-6876
imize	-6877
▁Connect	-6878
▁durable	-6879
▁Bul	-6880
▁transp	-6881
▁trim	-6882
omy	-6883
▁raw	-6884
▁crime	-6885
▁concentr	-6886
▁letters	-6887
▁resistance	-6888
▁border	-6889
▁subscrib	-6890
▁communicate	-6891
▁lawyer	-6892
▁Dog	-6893
▁complim	-6894
▁replaced	-6895
long	-6896
▁brilliant	-6897
▁conv	-6898
▁Die	-6899
entle	-6900
▁Stock	-6901
▁merch	-6902
▁spark	-6903
!!!!	-6904
DS	-6905
ership	-6906
▁baking	-6907
etry	-6908
▁bridge	-6909
▁managers	-6910
luded	-6911
▁script	-6912
ev	-6913
roph	-6914
▁Software	-6915
▁blank	-6916
▁WH	-6917
▁workshops	-6918
onto	-6919
▁Additionally	-6920
ba	-6921
agues	-6922
▁tip	-6923
▁Steve	-6924
▁delay	-6925
▁Map	-6926
▁Order	-6927
ogue	-6928
▁requests	-6929
▁hoping	-6930
▁SH	-6931
ials	-6932
df	-6933
▁dealing	-6934
▁pleasure	-6935
▁Product	-6936
erning	-6937
bar	-6938
▁tile	-6939
▁Richard	-6940
▁minimal	-6941
stery	-6942
▁speech	-6943
Cl	-6944
▁defined	-6945
▁lucky	-6946
rig	-6947
▁faculty	-6948
iary	-6949
FC	-6950
pat	-6951
▁producing	-6952
▁genuine	-6953
▁roles	-6954
▁Available	-6955
illy	-6956
▁Ram	-6957
▁forum	-6958
▁duty	-6959
▁Furn	-6960
▁Never	-6961
▁Still	-6962
▁ads	-6963
▁Perfect	-6964
MC	-6965
▁portion	-6966
▁Line	-6967
▁Photo	-6968
▁warranty	-6969
oster	-6970
▁displ	-6971
▁Joe	-6972
▁officers	-6973
▁Ref	-6974
▁visitor	-6975
▁spray	-6976
▁DVD	-6977
▁streets	-6978
▁resulting	-6979
greg	-6980
state	-6981
▁vul	-6982
osa	-6983
▁authentic	-6984
cture	-6985
LY	-6986
▁programming	-6987
bridge	-6988
▁matches	-6989
person	-6990
▁Johnson	-6991
▁relief	-6992
▁stake	-6993
▁Cut	-6994
▁aims	-6995
▁Samsung	-6996
▁channels	-6997
ogether	-6998
▁setup	-6999
▁covering	-7000
▁gym	-7001
▁vegetables	-7002
▁recommendations	-7003
▁PS	-7004
▁Andrew	-7005
▁magic	-7006
▁reducing	-7007
▁Base	-7008
▁Pict	-7009
▁Heart	-7010
days	-7011
▁Senior	-7012
▁Francisco	-7013
▁Space	-7014
▁trick	-7015
▁Mat	-7016
▁supposed	-7017
▁folks	-7018
▁hur	-7019
▁string	-7020
▁estimated	-7021
▁meets	-7022
oty	-7023
sec	-7024
▁Station	-7025
▁fits	-7026
▁downtown	-7027
agon	-7028
xual	-7029
▁liked	-7030
▁illness	-7031
▁recognize	-7032
▁obtained	-7033
▁unlike	-7034
▁Non	-7035
▁unexpected	-7036
▁Kids	-7037
▁ceremony	-7038
asting	-7039
uis	-7040
▁drinks	-7041
▁healing	-7042
▁seed	-7043
▁cock	-7044
▁suc	-7045
mend	-7046
▁guard	-7047
iler	-7048
▁versat	-7049
▁worse	-7050
▁photographs	-7051
▁Far	-7052
▁laptop	-7053
inch	-7054
rick	-7055
▁incident	-7056
▁FA	-7057
▁certification	-7058
▁Williams	-7059
▁packaging	-7060
▁resume	-7061
▁chairs	-7062
pack	-7063
▁accomplish	-7064
ati	-7065
rich	-7066
CD	-7067
ione	-7068
▁seriously	-7069
uses	-7070
▁concert	-7071
ulf	-7072
level	-7073
aven	-7074
ingu	-7075
▁Professor	-7076
ls	-7077
▁funny	-7078
▁Georgia	-7079
she	-7080
▁Contin	-7081
▁connections	-7082
lers	-7083
▁explained	-7084
otive	-7085
▁Lib	-7086
▁blocks	-7087
▁sending	-7088
▁usage	-7089
▁Queen	-7090
▁Sus	-7091
▁indoor	-7092
▁apparent	-7093
▁convenience	-7094
▁SE	-7095
▁Wr	-7096
▁flights	-7097
▁behalf	-7098
▁belief	-7099
▁Bob	-7100
▁resort	-7101
▁theory	-7102
redit	-7103
▁Studio	-7104
▁maintaining	-7105
forcement	-7106
▁Ter	-7107
ns	-7108
▁east	-7109
▁Below	-7110
pret	-7111
▁Fre	-7112
▁Jackson	-7113
▁pocket	-7114
▁Oak	-7115
▁approval	-7116
▁promise	-7117
▁agricult	-7118
CO	-7119
▁flexibility	-7120
ulum	-7121
▁lift	-7122
Ex	-7123
using	-7124
▁millions	-7125
▁enroll	-7126
lessly	-7127
▁Consult	-7128
▁zone	-7129
▁forced	-7130
▁suggestions	-7131
▁Singapore	-7132
▁automatic	-7133
ifies	-7134
▁Glass	-7135
▁phones	-7136
▁Collection	-7137
▁losing	-7138
▁clar	-7139
▁amen	-7140
▁Based	-7141
▁Private	-7142
▁judge	-7143
▁Jones	-7144
▁guidelines	-7145
▁refresh	-7146
▁planet	-7147
▁celebration	-7148
▁Ha	-7149
▁Prom	-7150
▁export	-7151
▁discussed	-7152
▁Previous	-7153
una	-7154
▁yours	-7155
ml	-7156
▁Personal	-7157
▁Flow	-7158
▁marks	-7159
▁authorities	-7160
bi	-7161
ubs	-7162
▁talks	-7163
▁gall	-7164
▁none	-7165
▁SS	-7166
ico	-7167
▁Tele	-7168
▁forecast	-7169
▁integration	-7170
▁crazy	-7171
▁constant	-7172
▁entrance	-7173
respond	-7174
▁Fed	-7175
▁possibility	-7176
tics	-7177
▁mm	-7178
▁Limited	-7179
born	-7180
oof	-7181
▁shots	-7182
terest	-7183
Pro	-7184
’,	-7185
▁decade	-7186
▁muscle	-7187
▁substant	-7188
▁structures	-7189
▁Foot	-7190
▁Hou	-7191
▁orange	-7192
ja	-7193
▁telling	-7194
▁habit	-7195
▁volunteer	-7196
▁Ly	-7197
▁vent	-7198
▁continuing	-7199
▁focuses	-7200
▁Tick	-7201
▁victory	-7202
▁younger	-7203
▁passing	-7204
▁Obama	-7205
▁Simply	-7206
▁centers	-7207
▁aside	-7208
▁smell	-7209
▁Bible	-7210
▁blow	-7211
▁convert	-7212
▁cookies	-7213
▁quotes	-7214
▁juice	-7215
▁Sher	-7216
▁layout	-7217
fo	-7218
▁directed	-7219
▁violence	-7220
amber	-7221
▁Manufact	-7222
▁recre	-7223
▁tomat	-7224
▁empt	-7225
▁noise	-7226
ampion	-7227
acular	-7228
▁Motor	-7229
▁legs	-7230
▁Rights	-7231
FA	-7232
▁Pen	-7233
arters	-7234
▁stim	-7235
▁ensures	-7236
phones	-7237
▁lists	-7238
▁lets	-7239
▁Estate	-7240
then	-7241
VER	-7242
▁Fac	-7243
▁Kim	-7244
▁texture	-7245
▁Rs	-7246
▁refund	-7247
nce	-7248
▁kne	-7249
▁Cloud	-7250
▁saved	-7251
▁inner	-7252
▁deposit	-7253
shire	-7254
▁involves	-7255
chester	-7256
▁birds	-7257
▁taxes	-7258
▁wrap	-7259
▁incredibly	-7260
▁filling	-7261
orce	-7262
▁Division	-7263
▁surprised	-7264
▁Mix	-7265
▁organisation	-7266
▁Kent	-7267
▁interact	-7268
▁Cand	-7269
▁recruit	-7270
▁recyc	-7271
fective	-7272
▁checking	-7273
▁suite	-7274
rell	-7275
▁Ur	-7276
▁suggested	-7277
▁errors	-7278
▁functionality	-7279
uling	-7280
ila	-7281
▁LO	-7282
▁engaged	-7283
▁chose	-7284
▁spots	-7285
▁pepper	-7286
mercial	-7287
▁instant	-7288
▁Fact	-7289
▁introduction	-7290
ustin	-7291
nders	-7292
▁sudden	-7293
▁trips	-7294
▁Roman	-7295
coin	-7296
▁posting	-7297
▁initiative	-7298
▁jewelry	-7299
▁applying	-7300
▁prove	-7301
ieving	-7302
▁id	-7303
▁Clin	-7304
▁forever	-7305
ronics	-7306
aters	-7307
▁primarily	-7308
▁sensitive	-7309
▁graphic	-7310
PM	-7311
▁recognition	-7312
▁preferred	-7313
▁SA	-7314
▁male	-7315
▁stored	-7316
▁Natural	-7317
▁Spain	-7318
▁inn	-7319
▁wiring	-7320
▁exceed	-7321
▁samples	-7322
▁certificate	-7323
▁hole	-7324
▁overw	-7325
adium	-7326
▁vulner	-7327
▁preparing	-7328
▁storm	-7329
▁Forest	-7330
▁ski	-7331
igate	-7332
▁breast	-7333
▁fairly	-7334
iki	-7335
dney	-7336
▁ocean	-7337
▁Brazil	-7338
GA	-7339
▁frustr	-7340
cknow	-7341
▁traveling	-7342
▁controls	-7343
▁crisis	-7344
uan	-7345
▁invite	-7346
urious	-7347
▁believes	-7348
!)	-7349
▁Products	-7350
▁tracking	-7351
▁mood	-7352
▁mand	-7353
▁Fall	-7354
▁lowest	-7355
▁till	-7356
▁damaged	-7357
▁hes	-7358
▁lake	-7359
▁split	-7360
▁commonly	-7361
▁painted	-7362
▁sophist	-7363
▁extract	-7364
▁ham	-7365
eras	-7366
▁driven	-7367
ulating	-7368
▁Writ	-7369
▁shift	-7370
▁rely	-7371
▁Nick	-7372
▁heads	-7373
▁narrow	-7374
▁league	-7375
anna	-7376
▁Medicine	-7377
▁Ap	-7378
eding	-7379
RS	-7380
▁requirement	-7381
iends	-7382
▁Event	-7383
ucky	-7384
▁Regard	-7385
▁Learning	-7386
▁Following	-7387
▁Process	-7388
▁religious	-7389
▁concepts	-7390
▁.<	-7391
▁drinking	-7392
rian	-7393
▁transaction	-7394
▁reserved	-7395
ounge	-7396
▁jun	-7397
▁yoga	-7398
▁laugh	-7399
▁visible	-7400
▁Ess	-7401
bing	-7402
▁naturally	-7403
▁regions	-7404
▁spacious	-7405
▁Pak	-7406
▁Share	-7407
▁Solutions	-7408
▁electricity	-7409
▁moves	-7410
▁Everyone	-7411
▁Employ	-7412
vironments	-7413
▁follows	-7414
▁screw	-7415
▁specialists	-7416
▁seam	-7417
▁prize	-7418
zing	-7419
▁Plant	-7420
▁lifetime	-7421
▁alumni	-7422
▁depends	-7423
▁authors	-7424
nda	-7425
▁hat	-7426
____	-7427
▁Conf	-7428
▁Express	-7429
▁enthusi	-7430
▁contractors	-7431
▁sick	-7432
▁encouraged	-7433
▁packed	-7434
▁rubber	-7435
▁unw	-7436
▁brush	-7437
▁inventory	-7438
urse	-7439
uls	-7440
▁Interest	-7441
▁rib	-7442
▁council	-7443
▁Hold	-7444
▁Ray	-7445
▁beneficial	-7446
ludes	-7447
▁bodies	-7448
ints	-7449
▁Sav	-7450
▁referr	-7451
▁attach	-7452
▁mob	-7453
▁Cabin	-7454
▁consumption	-7455
▁justice	-7456
▁principles	-7457
▁drain	-7458
stream	-7459
▁Sat	-7460
▁dual	-7461
▁tutorial	-7462
▁coupon	-7463
▁Jac	-7464
▁Cult	-7465
▁Avenue	-7466
uster	-7467
▁chances	-7468
▁screens	-7469
▁Pow	-7470
cking	-7471
▁causing	-7472
▁generated	-7473
ounter	-7474
▁seeds	-7475
▁susp	-7476
▁sail	-7477
▁abuse	-7478
▁concerning	-7479
▁creativity	-7480
onym	-7481
▁extend	-7482
▁Swed	-7483
▁Cool	-7484
▁describe	-7485
ventional	-7486
inery	-7487
▁Excell	-7488
ivals	-7489
ertaining	-7490
▁impossible	-7491
▁Square	-7492
▁opens	-7493
▁Create	-7494
Con	-7495
▁homeown	-7496
▁SM	-7497
▁strict	-7498
▁attending	-7499
▁framework	-7500
'.	-7501
▁nights	-7502
ds	-7503
▁Village	-7504
▁percentage	-7505
▁Pu	-7506
▁speakers	-7507
ndant	-7508
oween	-7509
sole	-7510
▁expansion	-7511
▁increasingly	-7512
▁smartphone	-7513
umbing	-7514
▁tape	-7515
▁Creek	-7516
▁passionate	-7517
▁casino	-7518
▁somewhere	-7519
▁attacks	-7520
isa	-7521
▁succeed	-7522
▁mac	-7523
▁trusted	-7524
▁everywhere	-7525
As	-7526
▁pra	-7527
▁ord	-7528
▁Asian	-7529
▁signal	-7530
▁sculpt	-7531
▁vert	-7532
eping	-7533
▁Insp	-7534
being	-7535
ificial	-7536
▁ft	-7537
▁directory	-7538
▁cater	-7539
▁signature	-7540
quis	-7541
▁doctors	-7542
▁chapter	-7543
▁staying	-7544
▁philosoph	-7545
▁loving	-7546
jo	-7547
▁aircraft	-7548
▁CP	-7549
▁arms	-7550
▁Toronto	-7551
▁collections	-7552
▁Agency	-7553
oker	-7554
▁recover	-7555
▁cab	-7556
▁speaker	-7557
▁Tay	-7558
▁ultimately	-7559
▁suffering	-7560
▁herself	-7561
▁stable	-7562
▁Band	-7563
▁reader	-7564
anes	-7565
▁tone	-7566
▁bid	-7567
▁facts	-7568
▁Radio	-7569
▁ram	-7570
och	-7571
▁Ms	-7572
gor	-7573
▁personality	-7574
▁consideration	-7575
annel	-7576
▁forth	-7577
▁discounts	-7578
▁reduction	-7579
▁acknow	-7580
▁advent	-7581
▁controlled	-7582
▁Description	-7583
▁gate	-7584
▁refr	-7585
▁Daniel	-7586
page	-7587
aints	-7588
▁exterior	-7589
▁Ice	-7590
▁slowly	-7591
sey	-7592
sters	-7593
▁divid	-7594
▁indeed	-7595
▁involving	-7596
▁Large	-7597
▁pace	-7598
▁improvements	-7599
▁tor	-7600
apped	-7601
inent	-7602
▁satisfied	-7603
▁dropped	-7604
▁perm	-7605
▁performances	-7606
▁Leg	-7607
▁Charles	-7608
eters	-7609
cycle	-7610
jection	-7611
▁evaluation	-7612
▁environments	-7613
erving	-7614
▁responses	-7615
star	-7616
▁wra	-7617
▁talented	-7618
▁exploring	-7619
▁Sydney	-7620
▁fib	-7621
ATION	-7622
▁Resp	-7623
▁refriger	-7624
▁Isl	-7625
▁Webs	-7626
▁Studies	-7627
AY	-7628
▁Term	-7629
▁Rub	-7630
▁amenities	-7631
▁introduce	-7632
▁tournament	-7633
▁division	-7634
▁shell	-7635
▁Cru	-7636
▁Such	-7637
▁scores	-7638
lections	-7639
▁Tech	-7640
axy	-7641
▁Located	-7642
▁champions	-7643
▁supplier	-7644
If	-7645
▁AL	-7646
▁Working	-7647
▁bab	-7648
itches	-7649
▁faces	-7650
▁Blu	-7651
otal	-7652
bel	-7653
abetes	-7654
ht	-7655
bro	-7656
uclear	-7657
▁roads	-7658
▁Mah	-7659
▁Pra	-7660
▁Experience	-7661
▁Crusher	-7662
▁Jenn	-7663
▁acquis	-7664
▁Bit	-7665
▁exception	-7666
▁beds	-7667
heast	-7668
▁coal	-7669
▁Emer	-7670
▁reception	-7671
▁casual	-7672
▁prison	-7673
▁Ask	-7674
▁Stat	-7675
▁mirror	-7676
riers	-7677
▁careful	-7678
▁stuck	-7679
▁neighb	-7680
tail	-7681
▁pic	-7682
▁organisations	-7683
▁Kat	-7684
wan	-7685
▁inspection	-7686
▁pitch	-7687
iti	-7688
▁shouldn	-7689
▁Own	-7690
▁lesson	-7691
▁Aff	-7692
▁recip	-7693
onder	-7694
▁feelings	-7695
lose	-7696
riculum	-7697
RL	-7698
▁arrival	-7699
ERE	-7700
▁Front	-7701
bourne	-7702
▁landscap	-7703
▁viewing	-7704
▁displays	-7705
▁tie	-7706
unicip	-7707
▁realized	-7708
erman	-7709
rame	-7710
▁maps	-7711
▁injured	-7712
uracy	-7713
▁desktop	-7714
▁fabulous	-7715
▁Model	-7716
▁Spirit	-7717
ror	-7718
▁amounts	-7719
▁Cro	-7720
▁penal	-7721
▁je	-7722
▁insert	-7723
▁Lat	-7724
▁visits	-7725
rooms	-7726
▁Standard	-7727
inois	-7728
▁remark	-7729
▁Ariz	-7730
▁experiment	-7731
▁stations	-7732
▁DJ	-7733
▁gentle	-7734
EA	-7735
▁alarm	-7736
▁module	-7737
▁CB	-7738
▁bills	-7739
▁emails	-7740
▁expression	-7741
▁Yet	-7742
▁ille	-7743
▁correspond	-7744
▁Due	-7745
▁Bes	-7746
▁overwhel	-7747
▁Prime	-7748
ashes	-7749
▁correctly	-7750
ession	-7751
▁engines	-7752
▁<	-7753
ashed	-7754
lements	-7755
inity	-7756
▁comparison	-7757
▁broadcast	-7758
RC	-7759
▁Kingdom	-7760
▁Field	-7761
▁Sound	-7762
▁anniversary	-7763
ali	-7764
▁giant	-7765
▁cm	-7766
▁kil	-7767
▁participation	-7768
▁toilet	-7769
▁rural	-7770
▁independ	-7771
▁Army	-7772
▁marked	-7773
▁maintained	-7774
Press	-7775
▁personnel	-7776
▁matching	-7777
▁instruction	-7778
law	-7779
▁Houston	-7780
▁Roll	-7781
▁gran	-7782
letter	-7783
▁Bh	-7784
▁laser	-7785
Ar	-7786
▁Cry	-7787
▁NC	-7788
▁association	-7789
▁differences	-7790
▁fighting	-7791
▁regardless	-7792
▁operated	-7793
▁Annual	-7794
▁Blo	-7795
▁retirement	-7796
▁Irish	-7797
▁closing	-7798
earing	-7799
▁Gro	-7800
▁referred	-7801
▁rust	-7802
▁Golf	-7803
haust	-7804
▁recon	-7805
▁situated	-7806
making	-7807
agen	-7808
▁massage	-7809
▁boot	-7810
▁diseases	-7811
▁worst	-7812
▁honey	-7813
cons	-7814
▁Niger	-7815
▁charity	-7816
▁Broad	-7817
▁printer	-7818
▁Again	-7819
▁Kh	-7820
▁completion	-7821
▁potentially	-7822
▁Tru	-7823
▁Property	-7824
▁asset	-7825
Le	-7826
▁acts	-7827
ERS	-7828
▁ranging	-7829
mers	-7830
▁engaging	-7831
Bl	-7832
▁writers	-7833
▁portable	-7834
▁Furniture	-7835
bits	-7836
?"	-7837
▁Requ	-7838
rat	-7839
▁container	-7840
▁publication	-7841
▁participating	-7842
▁safely	-7843
▁authority	-7844
▁riding	-7845
▁MD	-7846
▁Chall	-7847
!"	-7848
▁templates	-7849
▁Corporation	-7850
▁Treat	-7851
▁temperatures	-7852
▁Resume	-7853
▁customized	-7854
arry	-7855
▁Construction	-7856
▁gaming	-7857
icit	-7858
▁Capital	-7859
limited	-7860
▁persons	-7861
▁compensation	-7862
▁beautifully	-7863
▁transactions	-7864
▁Theatre	-7865
▁bact	-7866
▁golden	-7867
▁overlook	-7868
uma	-7869
▁Las	-7870
▁stages	-7871
foot	-7872
▁designing	-7873
▁unus	-7874
▁Perhaps	-7875
▁compact	-7876
▁yield	-7877
▁Comb	-7878
▁Size	-7879
▁dispos	-7880
▁Dun	-7881
▁boards	-7882
▁assum	-7883
ateful	-7884
burgh	-7885
▁compatible	-7886
HA	-7887
▁experim	-7888
iami	-7889
▁EN	-7890
▁gained	-7891
▁arg	-7892
▁mere	-7893
▁	-7894
e	-7895
t	-7896
a	-7897
o	-7898
i	-7899
n	-7900
r	-7901
s	-7902
l	-7903
h	-7904
d	-7905
c	-7906
u	-7907
m	-7908
p	-7909
f	-7910
g	-7911
y	-7912
w	-7913
b	-7914
.	-7915
v	-7916
,	-7917
k	-7918
S	-7919
T	-7920
I	-7921
A	-7922
P	-7923
C	-7924
E	-7925
R	-7926
0	-7927
O	-7928
-	-7929
M	-7930
x	-7931
1	-7932
B	-7933
W	-7934
D	-7935
2	-7936
Y	-7937
H	-7938
F	-7939
L	-7940
’	-7941
N	-7942
G	-7943
j	-7944
'	-7945
q	-7946
_	-7947
z	-7948
>	-7949
<	-7950
5	-7951
3	-7952
)	-7953
(	-7954
!	-7955
U	-7956
4	-7957
9	-7958
:	-7959
"	-7960
J	-7961
8	-7962
V	-7963
6	-7964
?	-7965
K	-7966
7	-7967
/	-7968
“	-7969
”	-7970
–	-7971
;	-7972
&	-7973
$	-7974
Q	-7975
X	-7976
%	-7977
Z	-7978
—	-7979
‘	-7980
*	-7981
+	-7982
#	-7983
@	-7984
[	-7985
]	-7986
é	-7987
|	-7988
®	-7989
£	-7990
=	-7991
•	-7992
о	-7993
е	-7994
а	-7995
′	-7996
